/**
  ******************************************************************************
  * @file    network_data_params.c
  * @author  AST Embedded Analytics Research Platform
  * @date    2025-02-13T07:41:49+0300
  * @brief   AI Tool Automatic Code Generator for Embedded NN computing
  ******************************************************************************
  * Copyright (c) 2025 STMicroelectronics.
  * All rights reserved.
  *
  * This software is licensed under terms that can be found in the LICENSE file
  * in the root directory of this software component.
  * If no LICENSE file comes with this software, it is provided AS-IS.
  ******************************************************************************
  */

#include "network_data_params.h"


/**  Activations Section  ****************************************************/
ai_handle g_network_activations_table[1 + 2] = {
  AI_HANDLE_PTR(AI_MAGIC_MARKER),
  AI_HANDLE_PTR(NULL),
  AI_HANDLE_PTR(AI_MAGIC_MARKER),
};




/**  Weights Section  ********************************************************/
AI_ALIGNED(32)
const ai_u64 s_network_weights_array_u64[27525] = {
  0x3c22e698bbbd2ee0U, 0x3d4c928a3da57f19U, 0x39bd3d003c804dd8U, 0xbc88c3c83b0c34e0U,
  0xbd3faa26bd7b4e94U, 0xbccb94dc3d5e463aU, 0x3be5ae503a128100U, 0xbd58c7b0bd8b787cU,
  0x3d11d47a3da59c73U, 0x3c09db203c2e0618U, 0xbd9918973c4c4678U, 0x3c9673003d24e38cU,
  0x3d98f311bcec3e70U, 0xbacc5cc0bda48ca6U, 0xbd61705abd361739U, 0x3da2c8d13d1a021eU,
  0x3caaf803bd3fd5ceU, 0xbd3896d4bc638511U, 0x3be739ffbd5f5167U, 0xbd875cd0bd4fcf5fU,
  0x3dd747603e018583U, 0x3dbf7c833d8abb3fU, 0x3e0501cf3e09200bU, 0xbda42165bd51d7efU,
  0x3d95336e3c064dc7U, 0x3c86cc703cd78651U, 0x3d35a77a3d4c2ca2U, 0xbb3e1c203d968335U,
  0xbc7484e8bda8105aU, 0x3da10b713d99f248U, 0xbd59e63dbd83cad1U, 0x3d42c966bd4dab86U,
  0xbd2af3193d2d8fa8U, 0x3e706bd13d58f120U, 0x3e9447a03e44cea4U, 0x3e891d3b3ebd47d2U,
  0x3e7ffa723e8fd093U, 0x3e02f70d3e6251c8U, 0x3b8a21333de564faU, 0xbd57a7c93d7bf433U,
  0x3d98a72dbd59ebdeU, 0xbd4e21693d4fa566U, 0xbda61bca3c273f08U, 0xbc9889a0bc6d106bU,
  0x3c87fe82bbcdd313U, 0x3d539e79bd8be334U, 0xba92789ebd81b8caU, 0x3df22f093e0f48b2U,
  0x3e006ee93e6909a3U, 0x3dce29713db44c2cU, 0x3dcae0843e3dfdc1U, 0x3e5c08d43da962fbU,
  0xbc3641983d800e42U, 0xbc70282cbc76784dU, 0x3caec36a3a674d6cU, 0xbd50d6d23dab16cdU,
  0xbd9f18d73bb5f1a0U, 0xbcdd56833d4b24d5U, 0xbe25f721bcdef504U, 0x3d35cd18bdb56e89U,
  0x3db7910fbda9c617U, 0x3dee62aa3e09c805U, 0x3bb0da3a3d952967U, 0x3e3e442ebc27022fU,
  0x3cd9f8a53da26533U, 0x3c8bcb043e4a3295U, 0x3d3966fa3d739e73U, 0x3e8828d63e322e6dU,
  0x3e7091f93ea92a47U, 0x3d86ceca3d96e9d4U, 0x3d2f0dd6bbca0270U, 0xbdf40331bb8c882eU,
  0xbdb44fcbbe1d5181U, 0xbb87b50cbaa0a6faU, 0x3df6ed4dbd7cc609U, 0xbc7e6c8bbc2c8df5U,
  0x3d597c6e3c441628U, 0xbd706ee83db2ef5aU, 0x3cc55df139dea3acU, 0x3d50cc823e0665e4U,
  0x3dacdafdbb561431U, 0x3e9bbfd03e5dd5c9U, 0x3eb1c5ee3e8a0355U, 0x3d8d4eee3e7a03b8U,
  0xbc780bdbbd65f4c2U, 0xbdd2c463bc6855c5U, 0xbcace3abbe095424U, 0x3d007798bccd0ea6U,
  0xbc64d173bbb6bb94U, 0x3d5f82633cadc79cU, 0x3bb133d23bbdfc60U, 0xbcceaa523cfb71f7U,
  0x3d63afc73d93c6cdU, 0x3e1655103cbe6ed5U, 0xbb124380bcf4d8d4U, 0x3e449f533e3dc415U,
  0x3e823ba53e91052bU, 0x3c0babf83ea5ecd1U, 0x3d823ee23cfada04U, 0xbcf5c52e3caf1306U,
  0x3cccccffbe1146a5U, 0x3d3b70643cdb1b23U, 0x3db783843e01aa80U, 0x3e048ec23dd75521U,
  0x3bb32e123d0b2c52U, 0x3d5e2cb03db46802U, 0xbc913b9bbc2d0074U, 0x3e28841b3c7fff73U,
  0x3dce3bda3db25ce3U, 0x3be1c96a3d8a04c2U, 0x3e9893f53dc45d5cU, 0x3cb63d4c3e97f69eU,
  0x3d31733e3d279c55U, 0xbe1306c4bd165a5bU, 0x3d28444ebd8966fbU, 0x3cf28bcc3d1c01feU,
  0xbd4ce7e13d85c2c5U, 0x3d4532e73c91a856U, 0xbd3897293dcca33eU, 0xbc1a5a6fbdfae413U,
  0x3d9429803da877e8U, 0xbd6ffb873b99e013U, 0xbd7802b63dbb0e12U, 0xbc4fb40abdfdc9a7U,
  0x3e0198703dc4822bU, 0x3d667eb13e77e9f5U, 0x3d31cf743d54f316U, 0xbd4f88c33c4460d4U,
  0x3b6accd7be3e9a3aU, 0x3c84ba85bd0683d7U, 0x3d1adf9e3d4c2b94U, 0x3e1200543dd42903U,
  0xbdf9eb313c8de420U, 0xbe9c212fbea478e3U, 0xbe29803bbe4241b4U, 0xbe589962be5144afU,
  0xbe25cda1be4e21d0U, 0xbdbd3cb4be1a3e10U, 0x3e146e483dc60fc7U, 0xbcb906d33e338cd1U,
  0x3d0f55e13d80188cU, 0xbda66fcfbd239a77U, 0x3de703913bfe0648U, 0xbc4ba5e4baefea88U,
  0x3d3f84ca3db72f70U, 0x3ddd6a09bcc3295dU, 0xbe36ff413df4862fU, 0xbe64cdecbe90bc84U,
  0xbe5cb1d7bd97b096U, 0xbebf85f2be8104ddU, 0xbe7764e6beab1f6bU, 0xbe113225be83f6ddU,
  0xbdb98bbcbd093febU, 0xbcb2293a3dc65345U, 0xbdc0934cbd3f4711U, 0xbd8b1c57bccd5bf6U,
  0x3cdf61513d0e8221U, 0x3d974cf13dd4bf05U, 0x3ca116073cb68ed7U, 0x3dccb6253d472ec9U,
  0xbd99a8f5bd7df5c7U, 0xbdbc6a46be1ce3beU, 0x3ddb89fbbccc7b02U, 0xbdd1c5533d90525bU,
  0xbe1c727bbe0884f3U, 0x3d210da3be57d3eaU, 0xbdb73cb1bd13bb65U, 0x3d1e1bd43d761d0dU,
  0xbc00d284bd16c9b9U, 0xbd638c71bde9307fU, 0xbd0ccbbb3d0f6ebdU, 0xbc9d94abbbdbdd4aU,
  0xbccfbdefbd0f2a2eU, 0x3df9d317bd85c5b7U, 0xbe028e2a3b805fe6U, 0xbe11bb52be2aaaadU,
  0xbcc6381cbe0bd837U, 0x3cdfbbf93d13f01aU, 0xbd98011c3d748d4bU, 0x3d9f2811be528bc6U,
  0xbe2b4bd93cfdf423U, 0xbcc5296c3d98a9d9U, 0xbdab5196bd603d6fU, 0x3db0e3dabd48334fU,
  0xbd67b3f33da3af64U, 0x3e2fe8ee3e017d10U, 0xbdcf1144bd2016b1U, 0xbd8d777a3d8007b4U,
  0xbe1c8be73c9474b8U, 0xbdda6f7ebd98a108U, 0xbd38be6cbe779f54U, 0xbd919c21bd2e422fU,
  0xbd93202d3d648348U, 0x3dca4075bda31d3eU, 0x3d8621653e5e0b92U, 0x3d9a9da7bbcfdf26U,
  0x3d3d26eabcbc244cU, 0xbe05e740bca96bffU, 0x3d2a0ec23dfb1bf6U, 0x3dbec7943dbf73faU,
  0xbbfbe9173d23f9a2U, 0xbd7778b03d6d3f70U, 0xbdcd88273adf8aeaU, 0xbe14e88abe208685U,
  0xbdbd13dfbd7288eaU, 0xbc7c8f6ebcb4b07cU, 0xbcc4c29a3d900503U, 0x3e34ebb93d300c36U,
  0x3d590f9c3d95e9dcU, 0xbd193890bd9de672U, 0xbcdded823d8ab916U, 0xbd14289abe20a28cU,
  0x3cf549343d1c68cbU, 0xbc67b111bd626010U, 0x3d81cebf3e0d9abaU, 0x3d05a16bbc9834baU,
  0xbd7c3b14bdaf8609U, 0xbe849230bdcad47fU, 0xbd16443bbd7385a9U, 0xbd9f66393c2171c8U,
  0x3b924a383c96e168U, 0x3dbf8fa0bb3bc695U, 0x3e010a5e3de180b5U, 0x3d2c330ebd6f2184U,
  0x3d7689233c8b5c84U, 0xbda66cf6bd302911U, 0x3bdf11b6bc715f78U, 0xbdc16225bdbd7538U,
  0xbcdaf47cbd2c11a4U, 0x3b076c4abb7eff62U, 0x3c3af6873d8e29c2U, 0xbe3d0c24be1b5e59U,
  0xbd9519eabdabaa46U, 0x3b5b254cbc38b187U, 0xbcad1cfdbd563c01U, 0x3dc8b7af3dca070bU,
  0x3db199363d73ae8dU, 0xbd97a14ebd918041U, 0xbda2bd4e3d10add6U, 0xbd40eef3bdd05eb8U,
  0xbcc939353e0074a6U, 0x3da76b6cbcb73d4fU, 0xbd18d6b4bdb08be1U, 0x3e00128e3bdd55aeU,
  0xbdb6bfb33d67cd27U, 0xbe38a10bbe13e5f4U, 0x3b853a2ebde3628eU, 0xbc8e31dd3d2242cbU,
  0xbcfbe3bc3d701545U, 0xbcdf2d93bb5f7a49U, 0x3d2b48b4bcfe0541U, 0x3c9c9bb5bd6fb1efU,
  0xbc8d5970bda67ce8U, 0x3de14b613c9afc36U, 0x3d554be83d4536d9U, 0x3dbd0188bab90b72U,
  0xbda6c7d0bce0dc0eU, 0xbdb7d4c4baf257dfU, 0xbe0294ed3d4678c4U, 0xbe26ea2fbe7cc31cU,
  0xbd538da8bd6cb12dU, 0xbc68141eb9ee417eU, 0x3bfb2f493dc7cd18U, 0xbdb466403cbee606U,
  0x3cef2791bc2eb798U, 0xbd99cb05bc0c70b8U, 0x3d74cfd0bce59db2U, 0x3bbc9afe3d80c139U,
  0xbd4f58df3d80b1b9U, 0xbcebfcc63d229f8cU, 0xbd971b5dbd7cc2c2U, 0xbd55e03dbd2f22a2U,
  0xbe2411453d973ec8U, 0xbd6b47febdb422b0U, 0x3d0d7d1dbd8e1912U, 0xbc3195243d5d1514U,
  0x3d294dc63d118e45U, 0x3cc499d03b01ed40U, 0x3cb6ab9f3e252c38U, 0x3d056dc03c26c1a9U,
  0x3d3e90d8bd820b72U, 0x3dd12346bac2a328U, 0x3de7e30b3e19a0a1U, 0xbdd1e33cbca313afU,
  0xbd9fe54d3bbee8f3U, 0xbcd8ee51bbb5a095U, 0x3dbb57d0bc67d645U, 0x3dbaca6dbcef7e26U,
  0x3dce9d8f3ce4d169U, 0xbc14500abd1d4e1dU, 0xbca85f7c3d35bc01U, 0x3d9cc290bb98f0f9U,
  0x3d870bba3dc0e0b7U, 0xbd2337e83d9bab6bU, 0xbd82dfa03c087780U, 0xbbbbd873bdc717b4U,
  0x3d0223913e3f7c4bU, 0xbd94cd13bca34222U, 0x3d3faae63c044981U, 0xbd599dc93d25fa68U,
  0x3d21612b3d562092U, 0x3d446eaa3d8709bfU, 0x3d5d3e9a3be9f7b2U, 0xbcec6ebe3ce3a64aU,
  0x3d54d6433d2ffef0U, 0x3dd008243d829bb7U, 0x3d8d7aec3e0a61aeU, 0x3d81a47ebd7efbb3U,
  0x3c2a84133b15ffe0U, 0x3d1d55bfbd0d331dU, 0x3dc424e23de433e4U, 0xbd95c843bd45beb6U,
  0xbd9a25fdbcafc360U, 0x3d335aa6bdc18590U, 0x3d245c2bbd366021U, 0x3e2088983dfd5927U,
  0xbc05a4e63dae26aaU, 0x3b900c78bd6afcedU, 0xbc685b29bc1b736fU, 0x3d9dcd663e1231a9U,
  0xbd7cf9b6bcb8ef43U, 0xbc84949c3c73e7fcU, 0x3cad72783cdefdacU, 0x3ddf8b7f3d415f5aU,
  0x3e002faf3d9748efU, 0x3d95050f3c63395aU, 0x3d8e84c13d146803U, 0x3d34f6a73d28b979U,
  0x3dbc545f3cdbc791U, 0x3d8f07f33d378300U, 0x3d40dae93dafd065U, 0xbcb0aa00bb89f96aU,
  0x3dab5da13cd6b965U, 0x3e3068fd3e00020bU, 0xbc338609bdf11018U, 0xbd546069bdc311d7U,
  0xbc76ac48bd0d5861U, 0x3da24bdfbdbcf9efU, 0x3d634b223d8773daU, 0xbd2557483d5d3cc9U,
  0x3bef7f313c13f96cU, 0x3e052c71bd58e546U, 0x3e0e7bab3d9d7eedU, 0x3cab02e93e0c0428U,
  0xbc6e23c6bc6b1432U, 0x3e05f68c3dde970cU, 0x3e59ac723e37784dU, 0xbcf1beb63e3e3bd3U,
  0xbb858decbdda7af4U, 0xbd392c4bbd8bf9ecU, 0x3da84013bd8d1cf6U, 0x3ddaa42ebd762b03U,
  0x3ce1600abce9d80cU, 0x3d0307493ca29be6U, 0x3cc834a33dce9935U, 0x3c8651b3bc135c64U,
  0xbb20786b3d4a2afeU, 0x3d7adf473de26193U, 0x3d9bc4103dbcc9a8U, 0x3e8068703e3fe834U,
  0x3e771c3c3e10230bU, 0x3e1be71c3e8d08d6U, 0x3d9fc497bcc2bc20U, 0xbd433e9d3cfe4424U,
  0x3b2344e0bd8dcdabU, 0xbd511a58bd8e870fU, 0xbd83963cbbe1ae1eU, 0xbdebf8debd471324U,
  0xbdee64be3c948275U, 0xbd5a3fb63d5c4719U, 0xbd4383313a333864U, 0xbd093e9f3dba1727U,
  0x3ada761ebd89de95U, 0x3e38e8f5bc79b4ecU, 0x3e02af893d998d25U, 0x3dd79f103df3d49dU,
  0x3d6d48c8bd834748U, 0xbd79cc1239b86a00U, 0x3d9a2e67bd6c608cU, 0x3d81dd0bbdaa4cf3U,
  0xbd80a35bbd9a996eU, 0xbdb31f833b428facU, 0xbda7177f3ca76bd7U, 0xbdcbf529bd9dd02eU,
  0xbd149d7b3b469da3U, 0xbc70db61be0bf7adU, 0xbd80f0f7bd458779U, 0xbdc21e4a3d42c65aU,
  0x3d716ac0bd347582U, 0xbd71b4583c7f7714U, 0x3d75279ebd2f2aa1U, 0x3d684bba3d74ec3aU,
  0xba8a7bc0bc068aa8U, 0x3ccd8c983ba54e30U, 0xbd249ad53d3af2f6U, 0xbc98ebccbcd9fb08U,
  0xbce3e79e3c6002b8U, 0xbd849868bd84360bU, 0x3d8b237d3d1ea1b9U, 0xbd8e6f9b3cc8bd48U,
  0x3c9f2770bd4c0e3eU, 0xbd8021e4bd3a8dc0U, 0x395358003d04fe9eU, 0xbc1147a8bd7e38aaU,
  0x3cc91ab83d8ce053U, 0xbd71a1ea3c464a78U, 0xbd598d883d1399b0U, 0xbd852b5b3d69f676U,
  0x3ce498083d7b55e2U, 0x3dca569a3d5e3399U, 0x3e16a23f3dd94c2cU, 0x3ec0f1433e9d4260U,
  0x3e7450b33e9df27eU, 0x3e4018d03ea5529dU, 0x3e23ab533d2c88c5U, 0x3e7db3c73e84a571U,
  0x3e37bca43e0fc62eU, 0x3dd83fa43e038827U, 0xbd39884cbd4b8056U, 0x3cf2d690bd19a9fcU,
  0x3b2f76e03d471296U, 0x3d20206c3d9617a5U, 0x3d9060853dbddd47U, 0x3e3e52c03e3e5eaeU,
  0x3e8f4b583e9798c2U, 0x3e8da3d33e93280eU, 0x3eac312b3e6b8295U, 0x3e3c49c93e2a5ed4U,
  0x3e1f90bb3e190053U, 0x3ed82c803e4a7a5aU, 0x3f10e3f23ef1a73eU, 0x3e9065543ecc82cdU,
  0x3c776a9a3e32cb18U, 0xbd9ba920bd152e1fU, 0xbd96bfae3cd07400U, 0x3bcf47e73ce6954eU,
  0x3d1f37ef3c319f3cU, 0x3e06af3b3e45bfbeU, 0x3dc5024e3e3315c1U, 0x3c31cb403dd39895U,
  0xbd382204bdc65d2eU, 0xbdbe4aa63c85034eU, 0x3dc569763b976c66U, 0x3dd6425f3db856e7U,
  0x3dffd2c53c0e6e0fU, 0x3ebf9db93e360272U, 0x3dcf44f03e354888U, 0xbd85ed49bdb11e2aU,
  0xbc8d62343c606098U, 0x3d72e300bc50f225U, 0xbc42601cbe05131bU, 0xbdadfa70bd36f9e1U,
  0x3dbacac23b037346U, 0xbd01d8eb3d78e902U, 0x3d341e78bd8a3c60U, 0x3c85bb8c3d73a4ffU,
  0x3da23de8bb174eddU, 0x3e1126963d4f071cU, 0x3df789403dabe232U, 0x3dc76d3ebb92d484U,
  0x3d7e9827bd87c9b7U, 0x3dbc09ffbcfa041fU, 0x3cabe738bd4a30cdU, 0xbdf800ce3dd1b396U,
  0xbde85661bd33c33fU, 0xbcbddaff3d6b2498U, 0x3d6c9f813d8fa614U, 0xbd2ef699bc75d504U,
  0xbda58b97bb0b58edU, 0xbd8e9a513bb14a51U, 0x3d00b21cbb8ab549U, 0xb9429298bcd431c1U,
  0x3cce9c643daaf9eaU, 0x3dd4548b3e36ee15U, 0xbd3168df3e553d41U, 0xbd31c70abda00db8U,
  0x3da41605bd080fb1U, 0xbdadd1fd3d8ab032U, 0xbdb43ef9be2a1b4fU, 0x3de723073cbcd9c2U,
  0xbc0b96c23deb0eb8U, 0xbe2851dbbd81b28fU, 0xbde8f874be436e1dU, 0xbe1da2d4be16afeeU,
  0xbd9b3d70bd6d64e4U, 0xbb8a1c06be0d4d18U, 0xbbdd60a2bc98de37U, 0x3da256d63d84e688U,
  0xbce84da73d36d702U, 0x3d4f699abe435483U, 0xbd82cccc3da6dd41U, 0xbdfba0a43db6e55aU,
  0xbc61388cbe2a4581U, 0x3d40bf47bd8739a5U, 0xbcd6abc83e0d3aa1U, 0xbd943b673d69077bU,
  0xbe32cc1abe235a3bU, 0xbd9bb2d6be0016ffU, 0xbdc86f75bdc929b9U, 0x3c4bc748bcd648e2U,
  0xbbe046fd3cfd0998U, 0x3bbcf432bd4d6924U, 0xbdeed566bdaa6df4U, 0xbda8f95dbaa16a48U,
  0xbd986b4abd5d855aU, 0xbe311e3abdb12f51U, 0xbe347b48be955c73U, 0x3cebca5dbd332d75U,
  0x3d8afb0bbc163f87U, 0xbcc7609abcd27e40U, 0xbdc4b871bd53a7c3U, 0xbe62dfd8be2884a3U,
  0xbd88b3a6bd7a98f2U, 0xbd97b215bd0b9f7bU, 0xbd7e71d6ba8a20d5U, 0xbde57fd8bce75307U,
  0xbd35c7c3be1f6469U, 0xbd9ba4ddbd885303U, 0x3c9dbab83d857459U, 0xbdf15641bdc4b88eU,
  0xbe8ab096bea2f212U, 0xbd1eb7993baf0e13U, 0x3bbd50b63dbb4eb5U, 0x3d105849bcfb3bd9U,
  0xbe388900be2e6255U, 0xbe34b99ebe8189ccU, 0xbd531e083c1ac756U, 0xbc9faea5bdc2afa4U,
  0xbe09f2ccbd3ab15bU, 0xbe187bd4bdc1d5e6U, 0xbd83db87bd872574U, 0xbe0d57f9bcbde611U,
  0xbdc8f2e73d5105ffU, 0xbdc7d164bdef9887U, 0xbe7d6524be57529eU, 0x3b8f321fbd3e727bU,
  0x3d79a23e3967594bU, 0x3c84b57d3da9fcaaU, 0xbe2e8c433c8655beU, 0x3d12f012bc1dce75U,
  0x3c2580adbd9aa058U, 0x3d06480e3cee9340U, 0xbddbd157bd105bfeU, 0xbd98e06ebd67f5deU,
  0xbd8f2d213e0f49f1U, 0x3a129f84be3965b0U, 0x3cfe479fbccec9deU, 0xbe06cffebd8d52e3U,
  0xbe604cf7be1997c9U, 0x3ca3459fbdbb3f22U, 0x3d7de6933d69e07bU, 0x3d394c063d28cb69U,
  0xbd8d7ce93d0fab9fU, 0x3d509aa7bdb557a0U, 0xbd1841c2bd31582bU, 0xbcf0703cbd902234U,
  0xbd88062cbdbe271dU, 0x3cdeb13fbdd6bb89U, 0xbd571e013dce22daU, 0x3d888799be5a3ca0U,
  0x3d383814bc1a6a38U, 0xbe128aa3bd698ef3U, 0xbe03a1b1be9329d4U, 0x3d8b000bbca5eacdU,
  0x3b4516953d34cd01U, 0x3df6aaba3e1b7f9eU, 0x3cbbf7723c8139dbU, 0x3d59c7f0bdd66d70U,
  0xbd5e7ff83bcbcccfU, 0xbe0471c6bd64fccdU, 0xbd8eaee2bdc77951U, 0x3d686c213d1cdf31U,
  0x3c8510143dbaac57U, 0x3b73a98ebd5fca9fU, 0xbcaee98abd8a32d2U, 0xbc3b2841be03352dU,
  0xbd83c0dfbe9955b6U, 0xbda9287b3ce46798U, 0xb88cd7203d92638eU, 0x3df927553db74b35U,
  0x3c8fab0c3d890313U, 0x3da8d111bda44d57U, 0x3d1c91903d81d0d8U, 0xbcd0364bbd0c0eccU,
  0x3d3d5edf3cfeb19aU, 0xbc2916843d4ae5c2U, 0x3c99de90bd618b6cU, 0x3d324bc7be448a19U,
  0xbd85d8bfbd55582eU, 0xbdd1b555bd0cdcb6U, 0xbc8d05d9be4e132bU, 0xbcd72e103d1ffaa0U,
  0x3d2d24273c7e03f4U, 0x3e4850da3defe398U, 0x397862e43d2413edU, 0xbd15da4cbc30c4b1U,
  0x3d8d9526bd115036U, 0x3c8c17593d77eb38U, 0x3cb1a8ea3d7b3fdaU, 0x3d023b7b3e3fa713U,
  0xbcebd9313b798df9U, 0x3ba894c4be0562a9U, 0x3d1203773cd0b907U, 0xbc998cb7bdbea241U,
  0xbd78c5023d3a3244U, 0x3deebfac3c6563c7U, 0x3e22681e3d34fba8U, 0x3dfcdbb33d975cb9U,
  0x3cd3b5e53dcaa40cU, 0x3d089ce33d33e759U, 0x3d9945743b1b62feU, 0x3c37648cbbd3f1b3U,
  0x3e4a6cba3d179034U, 0x3dc3caa53dcf0a08U, 0x3dbfd843bdbe129aU, 0x3d137e64bd62efd2U,
  0x3d30fa76bda1f15bU, 0xbd5a1c70bd065571U, 0xbd1100ecbda9fa8fU, 0x3e3855e2bb71f359U,
  0x3e1d1a1b3d716127U, 0x3d112ce03c8e2c6eU, 0xbd0b2d9a3c4becb4U, 0xbd634cbe3dbde4a9U,
  0xbd5a331c3d84e525U, 0x3d9c94a43c8cc7cdU, 0x3c1b1d83bc993d01U, 0xbd86462cbb59eac7U,
  0x3e12fa23bcfc5dc4U, 0x3d524578be27fd28U, 0x3d535b7cbd421226U, 0x3d9a9e903c0403d3U,
  0xbe23cb1cbd730b27U, 0x3b9b1ed23d28601dU, 0x3cf2d32d3d8dfba6U, 0x3daacb383ca86c7fU,
  0x3c2717a63c8dbf2cU, 0xbbbe69503d9b7579U, 0xbd6caf863cf35c23U, 0xbd825a4b3d532ae8U,
  0x3adb9d1d3c8472daU, 0xbc2f07a33ca86321U, 0x3d2237a33d5bed50U, 0xbd5596dabda75d69U,
  0xbc9b6c82bcf4e0b2U, 0xbdee5d40bdf4f22cU, 0xbe22faaabe0e6999U, 0xbd74e662bd278db2U,
  0x3d360d7f3d9aafb1U, 0xbdfb1beebcc1a8d8U, 0x3d6776613da918b2U, 0xbd1a3858bda28d2dU,
  0x3b85d6e3bcfdf376U, 0xbd665253bc8a9ee7U, 0x3ce0308e3b125b13U, 0xbba8444fbdda2abdU,
  0xbdc18987bdee5a9eU, 0xbcc86ad3bdaa876eU, 0xbc3032ed3bbb3768U, 0xbddf5506be008dbbU,
  0xbe20bf0dbe1d60d8U, 0x3db23117bda82a2fU, 0x3c137cd83cc0d2caU, 0x3b718f09bd05b902U,
  0x3b820b973de637d4U, 0xbd3a6d7a3ce8bda9U, 0xbdd10bcd3d1546acU, 0xbe1c99683cdb81c3U,
  0xbd428e86bd29b06eU, 0xbc49be52bd3221f3U, 0xbd0f4fd23c0f2216U, 0xbd4d74ddbbbc0414U,
  0x3d6cad3b3d93b8ddU, 0xbd353790bdfc4233U, 0xbe3f7997be692bdfU, 0xbc270821bdb05974U,
  0x3c2fda2fbcd364f1U, 0x3b155a98bb320df9U, 0x3d57e01a3dfbc505U, 0x3d4ba3873da685afU,
  0xbd36c91abbe0da9aU, 0xbd9fb8a9bd112d99U, 0xbc1bf884bd3987eaU, 0xbdfbb05cbca98aacU,
  0xbdb79b87bde3d40bU, 0x3cec68dabdca1081U, 0xbd49b606bb850e86U, 0xbdf464dbbd9a3f5cU,
  0xbe9f5cc6bdd276b0U, 0xbda4933fbe841a6dU, 0xbc6fd9d6bcc85e46U, 0x3d48ab283d94693dU,
  0x3e469d173e2cf5adU, 0x3d6fac8c3e3d2e53U, 0x3df435dc3d41f04dU, 0xbdabc78dbc0e89beU,
  0x3b0319a03d2ddf1aU, 0xbd73b0a6bdf62445U, 0xbc181409bdd12915U, 0xbca97b6a3ceeec15U,
  0xbc8753163ce3d93eU, 0xbd8abc84bd1442f7U, 0xbe0a8241be06035cU, 0xbe78e4d2bea20ef4U,
  0x3d9ca9193c585fbeU, 0x3de9b76fbcca36b4U, 0x3e027e5f3dcfbbaeU, 0x3dbe507f3da91609U,
  0x3c9d7a0e3db26f1cU, 0x3cdca4693d565866U, 0xbcf7138dbc20b734U, 0x3cf4d5b13dce7bb2U,
  0x3df3c38dbd3aa346U, 0x3b62ed603d0a548fU, 0xbbe8ee60bda833bbU, 0xbd8690aa3d4dd875U,
  0xbdbea07fbd976584U, 0xbe94f96abd020873U, 0xbe4a3419be7bb213U, 0xbe43dc34be2d4789U,
  0x3c8585f83c1f6eefU, 0x3da2f1bf3d971e3fU, 0x3c2ac5a3bc819585U, 0xbc1fe8f83c21908bU,
  0xbcec7977bca8fa88U, 0x3d2359fa3e0337e0U, 0xbc8c0198bd7bafd1U, 0x3dac39e33dd42371U,
  0xbd4c694cbd529437U, 0x3d732746bd8471cbU, 0xbc78777c3d8f1d83U, 0xbcd093913d303abdU,
  0xbd39dd76bd6a6563U, 0xbe53c441be752541U, 0xbe013ed2bd9c7221U, 0x3c69c847bbf57714U,
  0xbb07be9f3bd3e8ddU, 0xbd664142bd1789bbU, 0x3d4f1fe0bd4fb961U, 0xbc8da6ec3c345d64U,
  0x3d697411bd863bbaU, 0x3da999d9bd763913U, 0x3ca8c960bd4571b4U, 0x3d15eb883b690d00U,
  0xbdcdd3ccbd02314fU, 0xbd46b96b3d1d852aU, 0xbe13a375be1e8c93U, 0xbda89d40bcfe3a6aU,
  0xbe2eb02bbe40e51dU, 0xbe077d65be689f6fU, 0xbd6deb41bdf44505U, 0xbd1c9c00bdde28e1U,
  0xbcd6804fbd68bfcaU, 0x3d34f8293dafe602U, 0x3d1510a03ce03714U, 0x3d9338c73d97a0ebU,
  0xbd9448b2bd4b74abU, 0x3d2203443d81dfddU, 0xbd46d0723cd051faU, 0xbd3b7603bd964375U,
  0xbd82546dbd7bff23U, 0xbe3c1372bd281aa6U, 0xbe8d0711be68ee87U, 0xbe9f434ebeac5fb5U,
  0xbe8bf3dbbe7d75e5U, 0xbe7547f5be439845U, 0xbda840acbe1a04b8U, 0xbd618dbb3cfff619U,
  0x3d06dcbcbbd0f2fcU, 0x3d1b2f76bda57af3U, 0x3d22d4ecbd7f9c34U, 0xbc6387d83a1ebf80U,
  0x3d61cd5ebd59f411U, 0xbd93d4eabd695716U, 0xbe0641bbbde0d6acU, 0xbdd576963c2d7592U,
  0xbe025d92bde7aca9U, 0xbdc21907bd9fe6c9U, 0x3d03d35c3cbcfe61U, 0xbdd5ef2dbd8c9e4eU,
  0xbda75f9fbd369babU, 0x3d6f04493d676424U, 0x3d9f4eb7bd793e5aU, 0x3d9e79833b378920U,
  0xbc21aa98bda5a8b0U, 0xbd1e6c1cbd19bb56U, 0x3d9e7bffbcaba6f4U, 0xbd8e6045bcb4c160U,
  0x3d9fad41bcc9348aU, 0xbda407153ca401e8U, 0x3d1959673d9a08e1U, 0xbbfb32debcd1467bU,
  0xbda870f0bd08d11dU, 0x3ceae5bc3c060a38U, 0x3cf661a03c8de598U, 0x3cb944683d59d7faU,
  0x3ca80e78bda580a8U, 0x3a55cc00bd1a941fU, 0x3d38e50ebd2e462cU, 0x3d3fd0eebd929527U,
  0x3dadcf9d3d1cebcbU, 0xbc36dbacbce8db0dU, 0xbd7046b4bd458a41U, 0x3d9f1c0a3d94b7afU,
  0x3e6ae82b3e248ad0U, 0x3d03f79c3e49cb91U, 0x3e6162fc3dac4b38U, 0x3e8978923e52da26U,
  0x3e193dc73e8b6ab5U, 0x3deb59873934b578U, 0x3ccded9c3d387476U, 0x3d45d2cabd063ba1U,
  0x3c7213c0bb418480U, 0x3d3d8e73bd9a2053U, 0x3dde24293de51558U, 0x3bebeb4abc2f0110U,
  0x3c8c1c823dbfb3beU, 0xbcbb9c3dbc7abfc9U, 0x3e468ca63e3d9a62U, 0x3e8f4b933e206ac6U,
  0x3e23b8203e7c91bcU, 0x3ee651773e61cf6cU, 0x3f2098793f164514U, 0x3ec475593edf9664U,
  0x3d9636373e888750U, 0xbd6e122a3c9c0fe8U, 0xbd634ffb3b60d2c0U, 0x3d76633b3d4f33afU,
  0x3d8d1a043d8b6a8bU, 0x3dcba39d3daa8b61U, 0x3b055ce1bcfd6f9bU, 0xbe4927c5bdd2c5d2U,
  0x3db15a11bd8d01a6U, 0x3daed25c3d9cea38U, 0x3e3a10663dc3d623U, 0x3e8879cc3e788860U,
  0x3ea2d6ba3e837070U, 0x3e874d4f3ea71d69U, 0x3bcfa4813e55bcf7U, 0x3d9b4b7bbdae15ccU,
  0xbbe10970bc5b0b90U, 0xbce7d20f3d473c0eU, 0x3c234be1bce2ad86U, 0x3c4186113cd273bfU,
  0xbe526f3a3db6398dU, 0xbd3da566bdddd260U, 0x3dc3e6a9b9f87589U, 0x3d70d3d03d548005U,
  0x3d65c4693d8b79daU, 0x3dfb167c3d87d9deU, 0xbd030ec43d2066c1U, 0xbd7d75443af00b24U,
  0x3a2ee2673d87fcfcU, 0xbd645702bd491010U, 0xbcf5dae83d2e5836U, 0x3dba92293d93fd08U,
  0x3dfe946dbc7e62f6U, 0xbccd6d803d21c708U, 0xbddbf3ecbdd23363U, 0xbe58208bbe784d3dU,
  0xbccffdf43d11bbffU, 0xbe2ef529bccf3609U, 0xbdafbc12be4b8617U, 0x3d9db8013da289f6U,
  0xbd8cba11bcea3c92U, 0xbd3a95b9bd987463U, 0xbd47a0b83d63c220U, 0xbc67cc98bb36f0dfU,
  0xbc5d8eb9bd28c700U, 0x3d8fdd183b68188cU, 0xbd4b7f723d808cc1U, 0xbcc44732bdd30f0fU,
  0xbe4d6c29bde8b906U, 0xbe208454be8ad050U, 0xbd9deefcbdf94c4cU, 0x3c69177e3d020762U,
  0x3e475c3b3d8bf151U, 0xbd6ef53f3de471f7U, 0xbdb2d6393c8948b6U, 0xbdff5ae2bdcb59dfU,
  0xbe089bedbe9af306U, 0xbd14f716be201b90U, 0xbc4f0da93d41a662U, 0xbc6e46b63c3d33aeU,
  0xbe194359bcbcd223U, 0xbebf7bbfbe449c9aU, 0xbebf2548bebc10eeU, 0xbe45654abeb11893U,
  0xbba2f7363c12766eU, 0x3d7836743e2d4ec6U, 0x3d93b5093d46f550U, 0xbd2280ff3d5b15d0U,
  0x3d3c069d3d57c405U, 0xbe5c68b0bd8026b2U, 0xbe324baebe9b3b95U, 0xbdda538dbd99470aU,
  0xbdad0c36bd489549U, 0x3c75e1d6bd8aa7e1U, 0xbdb7dcafbe06fdc7U, 0xbe46dda8be1592b4U,
  0xbe21d6adbe808d21U, 0xbcf749afbe11a50dU, 0x3d71dfdbbd25063fU, 0x3d444ff03e198fb6U,
  0xbd1cb0373cbe7e53U, 0xbd7b2f5e3cd00d04U, 0x3c53123abdd5fc64U, 0xbe2887fcbc55f4e3U,
  0xbe9320d6be82161cU, 0x3d29bc65be2d6e38U, 0xbdc2e27ebd93091cU, 0x3c4e4a45bd892fbdU,
  0xbe3a54d2bda61997U, 0xbe8397e4be9ee511U, 0xbdabb495bd3a8a9cU, 0x3ad493e03dcc055eU,
  0x3d76459fbd74f883U, 0x3d9bbde53d985d44U, 0xbe4426acbd51f3ffU, 0xbdc02f2dbe105097U,
  0xbdd3269dbdcce2baU, 0xbd5de0493d19eac5U, 0xbe335981be82c7e0U, 0x3c6a67d4bd9e8ba4U,
  0x3b3c0925bc28f017U, 0xbdccfce0be33b8fbU, 0xbda391a3be10de6dU, 0xbd8ae4fbbe676f54U,
  0x3c9ec391bccf5128U, 0x3d088d2fbd44ab0bU, 0x3c924cc8bddfc638U, 0x3d486a0dbd0e32abU,
  0xbd73a0e6bcebdf53U, 0x3cca8f11bda042dfU, 0xbdd0ca3fbe1c4b65U, 0xbdb91e77bda77011U,
  0xbe01c080be85f010U, 0x3d3a845dbdf3acebU, 0xbc89eb5dbd9364b9U, 0xbd56a7ecbd3458f2U,
  0xbd415e92be365808U, 0x3db01099bd6ce0b4U, 0xbd1215953cd945e7U, 0x3d50db24bd1b6dbcU,
  0x3caa33373d013a32U, 0x3cf36eb43d4a8067U, 0x3cc366c537a4f688U, 0x3d09ba693c741b95U,
  0xbcc7a4ad3d4c3a95U, 0xbe2171dbbc81ec6bU, 0xbdf15fbbbdf61920U, 0xbd427badbd6a7654U,
  0xbdca08eebd1511a8U, 0xbe3a435fbdbd4d12U, 0xbd59d6e4bda0bb5fU, 0x3e05229d3daa2c93U,
  0xbc274cf0bd50f6c2U, 0x3d9fbd1cbcf85d8aU, 0x3d3f0ff03d9f3a88U, 0x3c29ee143e0f36e7U,
  0x3d9c12a0bc87dd4bU, 0x3d8055c93e25e75fU, 0x3c16386c3c602c8eU, 0xbe3bc4b6be445607U,
  0xbe6fa83fbe883a58U, 0xbd22a80ebe642da3U, 0x3ca336a63d11e548U, 0xbe3b893abe0e2de7U,
  0xbe229358bcdb1a1aU, 0x3d286e353dad42f4U, 0x3c2c79283cc02f8fU, 0xb8eded4a3d1b7bb3U,
  0x3e184ccf3d2a62ecU, 0x3dcae3283c97ae66U, 0x3d49dffcbd8b9251U, 0x3e1d40373d29a7ffU,
  0x3d8dcde5bb893d3dU, 0xbe8799dbbe574c74U, 0xbe96b532beb0f121U, 0x3d9c35f9be2e837aU,
  0xbd1d4059bd3071eeU, 0xbe549ba2bdf43fb9U, 0xbdf3d20fbd160b5fU, 0x3d92ea4bbd87b780U,
  0xbbfa260e3981641fU, 0xbb831cadbd178277U, 0x3db81b8dbd13cdaaU, 0x3d5a08ab3db0d338U,
  0xbd5cf7e8baa94c2bU, 0x3c3cd4ca3c304a94U, 0x3dc1efc23dcdf76fU, 0xbe71ed20be45a7e4U,
  0xbe2da8b7beaf2ce2U, 0xbda8ff55bd8068f6U, 0x3bf0a5f03b80593bU, 0xbcc9c837bd75843bU,
  0xbe0dcf173d10c058U, 0xbe0355383cc0321cU, 0xbcdf418f3d77dfa3U, 0x3dcf1afd3da60379U,
  0x3bda4eff3a9b3927U, 0xbd9475233d5c3680U, 0xbd01110a3d7e2534U, 0xbd28d29f3e14bd87U,
  0xbc78856e3df38826U, 0xbe70243fbe4cfde1U, 0xbdd6e58bbe1d5d19U, 0xbcaf6d783dabe721U,
  0xbcd7fab93d68be16U, 0xbb856b1dbd6b1712U, 0xbe06dd593c44f7c2U, 0xbc71ad2ebdbdec30U,
  0x3d76cfb93d561643U, 0x3d3c6d883e455754U, 0xbc53e5a13d57a2a3U, 0xbdab42c73d25e459U,
  0xbd7f432c3da5c142U, 0xbd68a3b0bca51026U, 0x3cf76d633d3bdee0U, 0xbdd0fdf3bd6c1826U,
  0xbe5b9503be788b09U, 0x3ca131ad3d4dafe4U, 0x3d4db98fbd8e5e94U, 0xbd84aebfbda9ca32U,
  0xbe2d5d8fbd4546b7U, 0xbdeb0ed1be0cc7e6U, 0x3d86efca3dec11d8U, 0x3d2510d83daca791U,
  0x3c83dbd8bdaed066U, 0xbd2446f23d766ce0U, 0xbde8f406bd95101dU, 0x3d498eacbcb607e9U,
  0x3b255865bd8a5071U, 0xbdf493643d90535fU, 0xbe7a65bcbe86adc9U, 0xbd97e5f23d03f124U,
  0x3dae871cbd515c91U, 0xbe0d38c6bd6ed6adU, 0xbdf3929fba850265U, 0xbe096ee9be327e5eU,
  0x3dfb71babda26847U, 0xbda20aad3ba472b0U, 0x3c20b112bd46b474U, 0xbb5dff253ba90e0fU,
  0x3c5803bebdab441eU, 0xbb2a97c53c4a2a7cU, 0xbd1c55e33d4b367aU, 0xbe5ad862bddd7eceU,
  0xbe1578f4be46e97dU, 0xbcfe5a043d6f90b7U, 0x3cd4bc9a3d90e273U, 0xbdae613fbdc4a06cU,
  0x3d7a10c9bd1be390U, 0xbdedcab43c9dd48dU, 0xbd872b06be0b12f7U, 0x3dd7cc893d790014U,
  0x3cb4e16c3dfe9544U, 0xbdd9a7a63bfe424aU, 0xbda782c0be00d585U, 0xbb8932123c6a78a5U,
  0xbd838ad9bdbc3e5bU, 0xbda6229bbd755c3eU, 0xbd0a3116bda21dd0U, 0xbcd6f5f0bcb87d24U,
  0xbd566068bcbbb024U, 0xbd214830bcc74107U, 0x3d329dd03b14313fU, 0xbd940be4bdc3f4fbU,
  0xbd9d9a0bbe43d7b6U, 0x3d4b2ad0bdb18b3cU, 0xbb986db13db4ac77U, 0x3c87c19d3db22634U,
  0xbe14a1d2bccfdd6eU, 0xbda6979dbdb7607fU, 0xbd2ae6593c2b5e46U, 0x3db1d8b93d93df8eU,
  0x3e090c703daaa625U, 0xbd200655bd9d86adU, 0xbd0f42b23d8f1e1aU, 0xbd76a1c7bd4a7ca9U,
  0x3c4023e43d7cc922U, 0xbdcbdc35bdb47686U, 0xbcaa2706bdc33e15U, 0x3c2bfaccbcbe7889U,
  0xbca4f0793dced3ecU, 0xbdbed8c9bb127d74U, 0xbd6658e8bcedc950U, 0xbd84fb9fbdf35a7dU,
  0xbdf8ff2cbcc47ddbU, 0xbbb0c32a3bfd8061U, 0x3ca4ce933dee5f57U, 0xbd2b9df33d22e37dU,
  0xbd2f2d673cd7cb2cU, 0xbdd6aa683d7e0ae1U, 0xbd9cccc4bd8f3835U, 0xbdd92db1bd8b4b51U,
  0xbca3daefbd0c4f0aU, 0xbe2037ccbcb8e6aaU, 0x3d8826f6bd1e42ccU, 0x3cbf830b3da17cf6U,
  0xbd37865d3d4ee9fbU, 0xbd8531d3bd32ab57U, 0xbd55000e3d809b9dU, 0x3d7c2512bd4a76d6U,
  0xbb65acc53c251912U, 0x3db0c32a3d25105aU, 0xbdaa202bbda0c94aU, 0xbdef86adbc7fc074U,
  0xbdf0362bbd8c18deU, 0xbd1c1474be05fbd0U, 0x3d4411ca3a9cfff6U, 0xbd58a2d9bcff39c8U,
  0xbc7d1ba03cbd146dU, 0xbc1af6c9bdae762cU, 0xbd004041bd0ac2daU, 0xbd178c62bda7eaa6U,
  0x3dbc35533e017555U, 0x3da25cd43e027148U, 0x3c5c10573cf423b9U, 0xbcdc4f3e3d8d4c7dU,
  0xbc845bb4bd720050U, 0xbe10dba3bdb8fd03U, 0x3d91e4f13d0c08eaU, 0xbc234c143ca78a04U,
  0xbdb9b1ae3d627912U, 0x3c18081ebda23eebU, 0xbd94ca26bd3bec2eU, 0xbca77599bdb06a7dU,
  0x3d4e2febbc157f92U, 0xbc10cb323d49f7efU, 0x3e143ac93e2e0e07U, 0x3e15b87d3d9b4502U,
  0xbda2e2483c799c80U, 0xbd1d687c3d2e909eU, 0xbd25aa4c3d6554eeU, 0xbd3d49cc3d0351dcU,
  0x3dbb135d3dcc305fU, 0x3dfa93b53db8884fU, 0x3e02ed9e3d87beadU, 0x3da9627d3cc14259U,
  0x3ddbbe3b3d191b1dU, 0x3e0d8a9c3d602fe1U, 0x3e4210de3e687102U, 0x3e95078e3e391351U,
  0x3e6b67d83e4dcd85U, 0x3de30c1a3dfd477cU, 0x3ce611923de88547U, 0x3b896000bd85ceb3U,
  0x3c58ad283bb416e0U, 0x3c8d326abd149c9fU, 0x3e6915f93e12a57bU, 0x3db7565f3e4704c4U,
  0x3e63a59d3e1398e2U, 0x3e11d2c93e016a9cU, 0x3d9bd9c33e76d3f2U, 0x3ea375a73e9b4ee0U,
  0x3ea61b363e947f58U, 0x3ead3ed13eb457ebU, 0x3eb9fffc3ec66c06U, 0x3dbec7473d3baab7U,
  0x3da44b543cae4c55U, 0x3d9c32cbbd9d8686U, 0xbd9f641d3d20e662U, 0x3c3910783d31dd7eU,
  0x3c579994bc85bc43U, 0xbc83c951ba1cfda2U, 0xbd7866fdbd9b7c7eU, 0xbc7d3cc53d79a170U,
  0xbd14676e3b678018U, 0x3e2e40133dcce02bU, 0x3ddcc42abd3a73f4U, 0x3d3317b23dafa5b6U,
  0xbcfd3d863b8793d0U, 0x3d9d25d1bd3bfb16U, 0x3d39faaa3a1ce180U, 0xbd6f26923cda7410U,
  0xbcfa36cabda28a2aU, 0xbccd2828bd4cf636U, 0x3d04f4d2bcd6ececU, 0x3da71629bd9436a4U,
  0x3d748146bd7cc326U, 0x3ce8b7a03d23b2b2U, 0xbd08d3b9bd290498U, 0x3cda81dcbc7c5f00U,
  0x3d9dddefbda04be0U, 0x3cd3576cbd6d81f2U, 0x3d0c95403da1c0edU, 0x3d236002bda1e2dcU,
  0x3d886a81bce4f68eU, 0xbd4718d4ba969000U, 0xbc4f0f883da3ada9U, 0x3c9a2a70bd9b8fe4U,
  0x3d2ee05ebcb44dc2U, 0xbaad06443a385068U, 0xbbe1c99e3da15307U, 0x3d4cdef6bdbe1beaU,
  0x3d68fc0d3d4a285bU, 0xbce43e3abd109c6bU, 0xbc990228b805fa00U, 0x3d9f9c14bbb10390U,
  0xbce021b33d9516a5U, 0x3ce83ff23d6d1ceeU, 0x3ca57258bcfc1446U, 0xbd0f380cbc132eb0U,
  0x3d6df4b2bcae4d64U, 0x3d1cdc463d50ae72U, 0x3d39eb333dd67408U, 0xbd9d6a343d669cbdU,
  0xbd4400f63d196efeU, 0xbd6d0b42bd5d70f7U, 0xbdb932033c90f76cU, 0xbe163a303b972be7U,
  0xbe1b1bedbd96569eU, 0xbdea4bffbe4cb7ceU, 0xbcb2a9ffbe15c0e6U, 0x3bf3cacbbd8077d5U,
  0x3d37eab23c804986U, 0xbcf3f13a3d2d4222U, 0xbd374c64bc7a1a88U, 0x3dfb037bbd9a1ffdU,
  0xbd89dbe1bb911c0aU, 0xbe0111b6bd38edbeU, 0xbe4a3998be3b833eU, 0xbe03e31cbe0fca4fU,
  0xbce45ee13d30d6d2U, 0x3d53acbebcf819e8U, 0xbc7e7114bd25fb03U, 0xbe2560b2bd9ec73aU,
  0xbd9601e5bd6a6f66U, 0xbd40e139be6fc124U, 0xbc0cc816bc5ee289U, 0xbd8d64983d8421d1U,
  0x3d743a6abd501cfdU, 0x3d8502783b7ae624U, 0xbd626f8d3d3a56ebU, 0xbe369b7dbd9a8f37U,
  0xbe66647dbe33d080U, 0xbe846794be8fddcfU, 0xbd81f083bdb3e91bU, 0x3e080fc33d8454b0U,
  0x3d8018313d8a0a70U, 0xbd78d61ebd79c481U, 0xbd49332abe0bc776U, 0x3d9f632bbdc91ca4U,
  0x3c93790ebbbf49bcU, 0xbd0939913dbe93f8U, 0xbc2900b83d6670a2U, 0x3dbf7446bbc0ad51U,
  0x3dae7b053d67d84eU, 0xbdd47488bcca9024U, 0xbda035bcbe04307bU, 0xbe4ed754be11efabU,
  0x3da572c3bdaf133bU, 0xbd8ad2d93cac2a4dU, 0xbd6d1aa2bdf81f0aU, 0xbe1aad40bdd66364U,
  0xbe11ec8fbdbb62c1U, 0xbddc7cedbddc2903U, 0x3cec911dbd98490aU, 0x3d42aea13d827157U,
  0x3cbb5744bdab2830U, 0x3d9b8c663bbc1eb0U, 0x3e82df1f3cf7f203U, 0x3dc14b993d8a992fU,
  0xbc8a6cd7bcc13a80U, 0xbd997c02bd9296bcU, 0xbd38aab2bb63a3aeU, 0xbd40d8223ca09ef3U,
  0xbd8d8627bd1b910cU, 0x3c248a033d35a37cU, 0x3dbff4a1bd5db150U, 0xbd7c4e213d9eb2f9U,
  0xbd93ef84bdbb413cU, 0x3d8abc7a3dc34f7dU, 0xbdae374ebce8a5f8U, 0xbb1f38f03d9cfb8dU,
  0x3c8c84f6bd35f281U, 0x3da082373df66c5bU, 0xbd934cffbcc976f3U, 0xbc525b6d3e06a74eU,
  0x3d864b643d81a42aU, 0x3cfa10a33d6c7cb7U, 0x3d524c9a3dc62d06U, 0xbb5206be3de56a8bU,
  0x3d836eaa3dd0939eU, 0x3cf3a796bd090e69U, 0x3d56c7433ce80914U, 0xbb8754763d034911U,
  0x3df372493d7a00b6U, 0x3db157b43e106148U, 0x3d9b92f4bd5614cfU, 0x3ca18a94bd4d7b6eU,
  0xbd7716d73d3b994cU, 0x3e417859bba6d886U, 0x3d5f13623e8b05c7U, 0x3e364ed13d70c2d4U,
  0x3e45d1ad3e3d72ceU, 0x3d98b01a3e66d3a4U, 0x3e11b5e43e09c972U, 0x3e1657333de45b62U,
  0x3df7fa023e7a0d3fU, 0x3daf50763d6c3384U, 0x3e4ae6b13da10253U, 0x3e5810383e81357cU,
  0x3d6d8a293d227205U, 0x3d0d5930bdabba1bU, 0x3c879883be0b402bU, 0xbd6980c9bd264d66U,
  0x3e48e1bb3d964605U, 0xb84a4ba63df56b1dU, 0x3e950a883e7085a7U, 0x3e0b9ac03dc6b75aU,
  0x3dccc2c13da8922cU, 0x3e05305d3a0d3ed2U, 0x3e4768633e83190cU, 0x3dc033a93dfee164U,
  0x3dae7d663982ce64U, 0x3cf3ebf53e8bc1cdU, 0x3e120e043d54c815U, 0x3d49cb49bc135d20U,
  0x3dcbb55cbc9a4fb0U, 0xbcab40ffbdbd2c78U, 0x3dd4b89b3d8489adU, 0x3d8c0c633e0e0ebaU,
  0x3e20e1813e11a530U, 0xbb1b4c423d0fe850U, 0x3dc38dcf3ddef419U, 0x3e03b39d3cae974dU,
  0x3e3478473e0bc1b1U, 0x3c3cadcf3e53e813U, 0x3e1813203cc60ad6U, 0x3e7b21173eab6a48U,
  0xbe2ac509bb3209a6U, 0x3e35848f3dbc15e8U, 0xbd277553bd233aacU, 0x3a6827aebc909cadU,
  0x3e3a44203c0c96c0U, 0x3cbf16353dd148d7U, 0x3d89711dbd47a146U, 0xbd6fe742bc24dc2dU,
  0x3d89cca53e1a1f11U, 0x3e3ffb2a3d3acce5U, 0x3ea63abe3e30faeaU, 0xbd9e581c3dc57e87U,
  0x3d2b0b673c9aeab7U, 0x3e161dea3e74c6cdU, 0xbd17b9b93e0143a2U, 0x3db2000d3d138995U,
  0x3e02870f3d0ff978U, 0x3ca559ad3d80b67cU, 0xbdbfbbc83cfccd74U, 0x3ccfe389bbae62caU,
  0xbdb372c1bdc95e77U, 0x3ca88be73d249b76U, 0x3d867fdebcc990d5U, 0x3dc6f3323e374154U,
  0x3da9cf763d856f48U, 0xbdb8f4bc3dd86455U, 0x3d1b1d233d3390e4U, 0x3e0d31743de5b2d4U,
  0x3d5340383d73455dU, 0xbd2dddf63c9917d8U, 0x3c887e113d8bea4eU, 0xbd3523383d0aebf3U,
  0xbdd67a18bce34462U, 0x3b44cde4bdcff6f1U, 0xbe1f60eabda76af4U, 0xbcf560d9bc0b642fU,
  0x3d788e90be23dc62U, 0x3d82c4f83dd4e2ccU, 0xbd9b55903d41ff3fU, 0x3bd668953d577cd8U,
  0x3d39efaf3d6eaa4aU, 0x3c3e86e73d32a81eU, 0x3d4d18ffbd5c414bU, 0xbccdaa883da8fe56U,
  0x3d041fa83cc8cdbcU, 0xba7ae54c3df71ffaU, 0xbb9dee73bd441ac7U, 0xbd95898fbdace753U,
  0xbda0aff8be44ed6eU, 0xbd4a002abd9d51caU, 0xba1075d2bde48821U, 0x3de18f5c3dc9c57eU,
  0xbd9d5d013def9b54U, 0x3adfa400bd37087aU, 0xbd7881a9bd769c9cU, 0xbd152cfcbda876eeU,
  0x3d9e8a693dbee68dU, 0x3dab9be53d958078U, 0xbd664057be1cf2f1U, 0xbd5632693da1b5f5U,
  0xbdf259d0bd8a55dcU, 0xbcbceaf3bdbf9293U, 0xbcbeb6a2bdcba6cfU, 0xbe034244bd5e366aU,
  0x3c08a23dbd0fe90aU, 0x3dcf5e983d5dfeb0U, 0xbcee7dd43e40c7a5U, 0xbd19f8afbd412836U,
  0xbdfb379d3bcfddbaU, 0xbde94adbbc916ad9U, 0x3df9ae993d533517U, 0xbd61cb853da005e4U,
  0xbd9f63963dd56394U, 0xbd1806e63d8cb7c6U, 0xbe3f0e70be24a847U, 0xbdc1c50cbe0e6a42U,
  0x3d425e3fbdcf5d6bU, 0xbe252535be282ddfU, 0xbe24e424bdc11df1U, 0x3c16c8cdbe020052U,
  0xbd0b0cfc3d2e17c7U, 0x3d235450be2c047cU, 0x3d1488d63c9f6038U, 0xbe19a2f3bdd07470U,
  0x3d3060fdbd9f8c6bU, 0xbd2f22273b091215U, 0x3e0be2943db680caU, 0xbd000de63d3e235aU,
  0xbdbd3cb4be0674a9U, 0xbc9124d9bcdaea3fU, 0x3c9c11b83d25d274U, 0xbd819f27be168547U,
  0xbe144c65bdfddea3U, 0x3c4bd2373c25a3e3U, 0xbe4279803d4d85b0U, 0xbcba55bbbe150c9aU,
  0xbdc641fa3c58b2eaU, 0xbe721e78bb833d70U, 0x3b54d013be0074e4U, 0xbb62e6803df421acU,
  0x3d3f9ae33d9b78c8U, 0xbc00292f397cd2f4U, 0xbe1bebf7bda372dfU, 0x3cccd257bcca0cf6U,
  0x3d2d283cbd12da24U, 0xbe49a701bc2d1c56U, 0xbd364778be01fda5U, 0x3d8fecff3d1641f8U,
  0xbdeadd04bcfe8c66U, 0x3c963022be026746U, 0x3d4d3d64bc97cd13U, 0xbeb357f43c1ac115U,
  0x3d4713bcbd6dfc58U, 0x3ca591f2bc465e5dU, 0x3b9047773e0bf4a3U, 0xbd64845cbd0c58b7U,
  0xbd4b6d8a3d58fa20U, 0xbdb70b20bd1d3d8bU, 0x3c1c0dd6bd771bcaU, 0xbe217747bd719052U,
  0xbd2fa067bd891a0cU, 0xbcf101913d24e513U, 0xbbac453ebc403e7eU, 0xbc9d1682bcbec979U,
  0x3ce283003d8a7d0bU, 0xbea18edebd873be3U, 0xbbbcb13dbe7dc5abU, 0xbde777f7bd23efe6U,
  0xbd9666e73d5e1e15U, 0x3d36c8f73d829037U, 0xbdbd1924bd3f69dbU, 0x3c1428e3bcfaa0fbU,
  0x3cc728a4be17ab57U, 0xbde2fd44be44b671U, 0xbd55eaadbdc4c13cU, 0x3d361f4e3d8f9634U,
  0x3d83e304bb45e471U, 0xbcd537e1bccd6f7bU, 0xbdbb8368bd31621dU, 0xbe397aa4bdb00745U,
  0xbd7ee680be37abf4U, 0x3cec55acbda74bdbU, 0xbd7ca7e6be277b90U, 0x3aa3728b3d3fe4f3U,
  0x3c508b26bceddc37U, 0xbe1ac7a1bd8d71f2U, 0x39f699e8bd1d7b18U, 0xbe54cf2bbe53e541U,
  0xbd93debabd9306daU, 0xbc9b905abd38a248U, 0x3db4738b3cbb0910U, 0x3d803e3bbcc3d30dU,
  0x3c934de7bd7ab33dU, 0xbe84b1afbe2fa3d1U, 0xbd0da438be1e834bU, 0x3e0ad1e2bafb3d88U,
  0x3d91f70e3da9b7f8U, 0x3d5912c63ab2e260U, 0xbd9ee14d3dab8535U, 0x3b4227ee3d248488U,
  0xbd87f98bbcdac5e5U, 0xbe220e24be051209U, 0xbd32e79ebdfcb049U, 0xbdfc360c3d41c030U,
  0xbb2a26943dadef94U, 0x3d112c4fbd7b1892U, 0xbd581afabc4f04d8U, 0xbe283cc8be038cc3U,
  0xbd7ca8e6bd9db22dU, 0x3daa605b3d166be7U, 0xbdf7f91abd785597U, 0x3ad72440bd2508e0U,
  0x3c78b030bc101a86U, 0xbd0d6aff3c1eecd9U, 0xbd337a593d1a491aU, 0xbe2169a2be3f1851U,
  0xbd3ffaa4bdb8ab5cU, 0xbaa52295be35a7f4U, 0xbda8ccfcbd55663dU, 0xbd3fd614be127a8bU,
  0x3c31ec78bd43f8e8U, 0xbd3afb143d8a0f3dU, 0x3dafc5653e6a16f8U, 0x3c204051bd3acfa8U,
  0xbc3ff5823d170d1fU, 0x3d318997bc6f6534U, 0x3dc27e6d3e0e2f7fU, 0x3e080933bdad7c7dU,
  0xbc1b41a83d33a1edU, 0xbe263271bde5a5eaU, 0xbdf71eb6bcb95d0dU, 0xbe221088bdf736dcU,
  0xbddbdbf8bd2357b2U, 0x3cdad02c3ce877c0U, 0x3d88b5fdbd1e85efU, 0x3e0bfaf43d762af3U,
  0x3e8997603e7d26caU, 0x3dcf2d263d737069U, 0x3cd9ccbc3dd26411U, 0x3e1e1d813c3e7042U,
  0x3c16fc043d93af4fU, 0x3e1a58b13e1c800fU, 0x3d5ebe833e40a186U, 0x3d51b693bd1949d7U,
  0xbb2ea8de3e0074d5U, 0x3df3b5ef3c89af25U, 0x3d191b5c3dcb6cfcU, 0xbd9980dabcb83d0cU,
  0xbd8ed9ac3d6d4f96U, 0xbbd30bb43d94eed3U, 0x3e5120a53e01f72eU, 0x3dd09ad83e0b58c6U,
  0x3e7c7fc53e4bedcbU, 0x3e3ccc753e094ff0U, 0x3e831a5d3e06401bU, 0x3e29636f3e97662dU,
  0x3e01da8d3e789608U, 0x3e77f67c3eb856f9U, 0x3dc5102c3e8caa53U, 0x3c177f2a3d357bffU,
  0x3d975906bdc6addfU, 0xbc9cb338bda434eaU, 0x3da82c09bd91f73cU, 0x3d88c88fbd867ce7U,
  0x3d1fd352bca2c348U, 0x3e2fb6993de0ad22U, 0x3e8182fb3e42214cU, 0x3eafa5503e7125b0U,
  0x3e90bcb83e9aa7f3U, 0x3e5039613e7dd4f7U, 0x3e94230f3e938a78U, 0x3e51151d3e4d0ba2U,
  0x3d2e3e143d978190U, 0x3daeb6c83cd397a7U, 0xba1870803ce45cccU, 0x3c8efd04bd8c45c8U,
  0xbc044ab83cd7cca0U, 0x3d3e8482bc814a30U, 0x3cfa7554bcaefde8U, 0xbd838b72bda45b00U,
  0xbd910d173cb04778U, 0x3d9e4c3dbd45d337U, 0xbd7d794c3c34f09fU, 0x3d37b0f0bd716be2U,
  0x3c83e300ba18c800U, 0x3cf1fb50bd09e150U, 0x3da75693bba8f2b0U, 0xbd83c6f5bcc2d824U,
  0xbd320154bd9323bbU, 0x3d02802e39206800U, 0x3a1c45803d9e1913U, 0xbd88089d3d59927eU,
  0xbda3535c3d1678d8U, 0x3d56c411bd4a3809U, 0x3db7ff523dad61afU, 0x3dc4ed403dcb5e91U,
  0xbc8289973d91c5f3U, 0x3ce9718d3c8e888bU, 0x3e452abc3d7fe4efU, 0xbaaa5e80bc8f9cb6U,
  0x3da42d3dbd4c100dU, 0x3c24038cbcb40888U, 0xbd8648a0bb9474e0U, 0x3d1909643d826f45U,
  0x3beecf10bd9f2383U, 0xbd87cb38bbdc9d30U, 0xbd1f785cbdbc1663U, 0x3d3413e7bd313e3bU,
  0x3e3f4c743daa3512U, 0x3b6bb4aa3d834f2eU, 0x3de7f0f2b9ce0ffeU, 0x3e7581983e082648U,
  0x3e34c9c03e0e7db3U, 0xbe0ff10b3c1debb4U, 0xbdeffd4bbdcfb8e5U, 0xbc1905cfbe1826ccU,
  0x3c36cf51bcabb23cU, 0x3bcf90a03d115e26U, 0x3da24e33bc71e1e0U, 0xbcc9e706bd64a815U,
  0x3dcd5810bdb416bfU, 0x3e69119a3e7cb20eU, 0x3e02011b3de92626U, 0x3e57c95f3dd09963U,
  0x3e43e92a3dabc071U, 0xbc7afcaf3d4fed58U, 0x3d4d483a3dcd082eU, 0xbab2c9ad3d73fa1cU,
  0xbcf01199bd9d267bU, 0xbd914dc4bd4cd0b2U, 0xbd9d5670bd7b66a3U, 0xbd17de7b3d1cd70cU,
  0x3c163ccebd292ddaU, 0x3d1d21f0bc5aefc8U, 0x3e20760a3c00147dU, 0x3e5ada6a3e8c3f7eU,
  0x3d0f5b953d017f78U, 0xbc8afcb1bc15f426U, 0x3e0371ed3dba2189U, 0x3c147752bc44db0aU,
  0xbd30f86d3d54f953U, 0x3e2387f43d25d3a6U, 0x3c39d02d3dd9be0fU, 0xbd821769bd3cdee5U,
  0xbdb16adb3d429072U, 0x3cc3c944bca275f8U, 0x3d2889763d902e71U, 0x3dcf1aac3d2bdc51U,
  0x3e6f8f123e0b69ccU, 0x3e01db4f3e08ff69U, 0x3da2c4323ba1dc02U, 0x3d02ce553b3a0a7bU,
  0xbdaef701bd26df62U, 0x3c3c24b8bdcbe9d6U, 0x3c34ad27bccd40a9U, 0x3d94555dbd7f9661U,
  0x3da449c33c89a7e3U, 0x3b664bdf3d0f8eb5U, 0xbd8e0e61bc293b4bU, 0x3c225ae5be119a98U,
  0xbd5f4cbf3cb4bb10U, 0x3d61fe753daad652U, 0x3d2356503e28b696U, 0x3b1dd3f93e1e3c15U,
  0xba367ce6bd182018U, 0x3d1c61da3cce1e0eU, 0xbd8f766b3a9d48a1U, 0xbcd770e03d810099U,
  0x3d9125323cdd3774U, 0x3d3bcf993d54d967U, 0x3cf7496ebd4123feU, 0x3c784dfbbd38930dU,
  0xbdd7f1dcbd0282e4U, 0xbd485f6cbda2c6deU, 0x3d8c32efbd35b6a5U, 0x3e2f2e093d3983edU,
  0xbd55fe943d1efdf8U, 0xbd128658bcfceb85U, 0x3d5dd57abd8e3855U, 0x3d5f6fff3b4c479aU,
  0x3bc8d0493b268f77U, 0xbb7f65fdbd68ad7aU, 0x3c5c20f93d8d53d8U, 0x3d5ad1643d40aeeaU,
  0x3dddeb05bb5aadaeU, 0xbd83bf1c3db2fc0cU, 0xbe196ddabdc67305U, 0xbd79e744bae77f5eU,
  0x3ded215f3d06b8b1U, 0x3d8e79a0bb95622dU, 0xbd0917923d09dbb0U, 0x3d8a9529bd20070aU,
  0xbc1c0e85bcc99dbeU, 0x3c9897923d7aef70U, 0xbd641d393d3c26dcU, 0x3ce537453c8140c8U,
  0x3e075265bb3dc237U, 0x3d7154143d9caa4aU, 0xbbfa51013d7740abU, 0xbd6d7f8a3ded1079U,
  0xbe5ecdafbdee3aacU, 0x3ca3783fbcc2592cU, 0x3dc750513da3e793U, 0xbd392b803dde46dfU,
  0x3e2bf8653dbd78dbU, 0xbd451bbf3c344a8aU, 0x3df637983dc5609cU, 0x3e0a11ce3d6c3e6cU,
  0xbd846ca33d0661a8U, 0xbd458e40bdecbe96U, 0x3de474983dacd4c7U, 0x3d1cfcf6bd04b2ffU,
  0x3cbb6443bbe5a16eU, 0x3d850b273d4a42f6U, 0xbe198dd3be5708f2U, 0xbd2fbfc8bda8a768U,
  0xba3ae0f8bc04b560U, 0xbdd34c033de59538U, 0x3da7844ebd112d34U, 0xbb4bd5123ceb6f6dU,
  0x3da745303d83cb13U, 0x3c3245243d9b371bU, 0xbe491b16bd6b30f2U, 0xbe245763be871ad7U,
  0x3d87eca23d820029U, 0x3c7306263c1caa54U, 0xbb0e86e5bdf1b0beU, 0xbc149327bc3edcc0U,
  0xbddd5950be104480U, 0xbd72fc91bd65d1bbU, 0x3c235a5d3d8c2a65U, 0x3d4ee7cf3dbc02dfU,
  0x3da533b3bcad8357U, 0x3c771c853dda71a3U, 0x3c97245b3dfc2041U, 0xbe70cf49be0938f9U,
  0xbebcab8cbeaf0622U, 0xbd5e37bebea19d6aU, 0xbd00e6273d07ea24U, 0xbd9d2047bdf237d0U,
  0xbcf45532bdcbe15aU, 0x3b8e84d5bc0be411U, 0xbd0fcc7abbcef3efU, 0xbd858ad43c029e0bU,
  0xbd05d2f2bc1af5eeU, 0xbdc4adaabc8a694bU, 0xbe13c6d8be2df9d9U, 0xbe0e8be2be0c6c57U,
  0xbe95c540be00f96cU, 0xbecf54bcbea76c61U, 0xbe833abebec8dbb1U, 0xbce94bf5bdce5dcfU,
  0xbb2c39943d50c99cU, 0xbe28a9f1bce86e02U, 0xbd9745e5bd6768b1U, 0xbd841fad3c08e590U,
  0x3d64d3313c59fe2aU, 0xbd38a6eb3e00cbcdU, 0xbc1fe481bd9c40c7U, 0xbd6257e4bbf70b02U,
  0xbe217613be03fb64U, 0xbec881cebee7ac4bU, 0xbf001c88beff4e56U, 0xbe84dd39bf01f281U,
  0xbd00e5c3be1cc049U, 0xbdc254e6bdd4b764U, 0xbd90d8a5bd5c377dU, 0xbd9d2b853c454738U,
  0xbcbe3768be38de03U, 0xbe0d59d7bda24bfcU, 0x3d6e47423d64103eU, 0x3da806343ddcac11U,
  0xbd7157a73d5efedaU, 0xbd0eca883d59e6b3U, 0xbee473fdbe913e98U, 0xbeefb989bec2d2f4U,
  0xbea2f10cbed3fdb8U, 0xbb8b5676bd05faf3U, 0x3db232a83df152d5U, 0xbda20812bd57c783U,
  0xbd4841b6bce1866eU, 0x3d830e84bcd1a27fU, 0xbd2c0adebd375efdU, 0xbd26515bbc019f33U,
  0x3caed3d33e367ab9U, 0xbd8182d43e2e155fU, 0x3d4f526b3c77f630U, 0xbe11a6823d1f22bfU,
  0xbe10d25ebe514543U, 0xbe73a28cbe4495f6U, 0x3dee8c0cbd68498fU, 0x3dcaca5b3dc67662U,
  0x3d0fa561bd2e165fU, 0xbcee27543d1333c5U, 0xbb58f2153d4f0932U, 0x3d85091dbd446732U,
  0x3d64c492be0481cfU, 0xbc675e7ebdd85f40U, 0x3db39cec3e3cde6eU, 0xbcccaada3d865284U,
  0xbc601320bc7e5e98U, 0xbd911b2b3ce6e484U, 0xbd769d82bdd58070U, 0x3d9945f63bab0808U,
  0x3e0c7fee3d85a7faU, 0x3da30dce3dcc8bcaU, 0x3c4a8a783dbc97efU, 0x3d486199bdb6fc4eU,
  0x3cc29af7bd044f58U, 0xbcaf3fbbbd771291U, 0xbd18f7edbd37db88U, 0xbd77a145bd99b9b5U,
  0x3e56a8243d917719U, 0xbd7b2bb93daf0ac9U, 0xbd40dfd8bc834a74U, 0x3c1f0214bd8fd267U,
  0x3d4e531d3db7ba14U, 0x3d1c03f43d2fac55U, 0x392156b03cebd792U, 0xbcf9fe4c3d8c3f30U,
  0x3d5c1d0dbd0494b5U, 0x3db46cc73d234164U, 0xbd70d7723ade1b2cU, 0xbd9114953d254a53U,
  0xbdb32dc6be1463d8U, 0xbc34ef7bbd89d5a7U, 0x3e0d142f3c199e9dU, 0xbd3325013df71f0bU,
  0xbda2bb5fbcfe99d1U, 0x3dde3ca6be13e4fcU, 0x3d05538e3e4e8c45U, 0x3e1309353d3f5d15U,
  0xbca269e1bd1df055U, 0x3d0c0b263c2107c0U, 0xbba5ede43df2a650U, 0xbcff83003d5ab7a5U,
  0x3bc18662bcc50bbaU, 0xbda120153d858325U, 0x3c97650f3b431df8U, 0x3d999c643e05a33fU,
  0x3e6d26563e11fa76U, 0xbd5fee853e73c9eeU, 0x3d0f81a7bb848f1fU, 0x3dbba28dbd9915ecU,
  0xbda17cfe3e18b5cbU, 0x3d431ade3d91c63cU, 0x3d09768e3dcc170bU, 0x3e18fdb63db9daecU,
  0x3d6a2d763b7be7a5U, 0xbddb608abda81ebbU, 0x3cc89e1b3d994af5U, 0x3c97c457bdc29718U,
  0xbc5d1d02bb3a5b6eU, 0xbcfe2940bc004d6eU, 0x3e8003ba3d4de067U, 0x3c76100b3e8d623dU,
  0x3da15b14bc94f7d8U, 0x3dcf448abd57e5e0U, 0x3d9ff4693e75a14dU, 0xbc7ea3fdbdaed399U,
  0x3d71f1683e46765eU, 0x3d9957913d137702U, 0x3ca77ea33c14d442U, 0xbd4829bdbbbbb82fU,
  0x3c977c3f3c9a7c5cU, 0x3dbbee27bd894c1fU, 0x3df9466d3e019b87U, 0x3da2d9023d883ccfU,
  0x3e9b2ae93db124dfU, 0x3d9e1bb33e973651U, 0x3da3df643da4df84U, 0x3dd7d1083d9faba2U,
  0xbcab679a3e001daeU, 0xbd6947c0bb844b2fU, 0x3da5e141bd87d281U, 0x3d88a995bc874d95U,
  0xbd72dc893d737a31U, 0x3bc296073a16dcadU, 0x3da852b3b9e00323U, 0x3e509abc3e18ad94U,
  0x3cc42503bd164cbbU, 0x3e3d2c973d94d61fU, 0x3ebeae2a3ec209b2U, 0x3d1600ea3e4a0d67U,
  0xbdb4faff3cf5d786U, 0x3db6bee7bd42ea74U, 0x3e074bd93e192d17U, 0x3cb8f2c8bc0d04d7U,
  0xbcd13a5f3d30e413U, 0x3cc63f4ebce0cc14U, 0xbbca7d83bd8783c0U, 0xbdcc8b123d881487U,
  0x3ccc09f3bd588136U, 0x3dd0fec63ce7f091U, 0x3d0b841b3dd8b1d0U, 0x3dba1b733e32ab1aU,
  0x3e5d61303e8759c6U, 0x3d373e4e3e0e4b7bU, 0x3d9ad12bbd4e6b09U, 0xbba569963ccf47abU,
  0x3e2df2fbbb10622dU, 0x3d9b63a73d07ae16U, 0x3c217b7fbcc827aeU, 0x3d9d444b3d1b5dbaU,
  0x3dce9e073da9a846U, 0xbdb633c4bd14dd5dU, 0xbda35032be0a3f6cU, 0x3d247ce23d2a6daaU,
  0x3dc170bb3d93ddd3U, 0x3d9671343de3555fU, 0x3e0890503dedbb8bU, 0xbd6f674c3d5db4c5U,
  0x3cf9224c3d0a2ed8U, 0xbc9434cf3d271978U, 0x3e0c765d3d530754U, 0x3c4825353d6a9df9U,
  0x3d939b3f3d33382fU, 0xbd960d57bce4aebeU, 0x3c71742b3ba025a7U, 0xbbd0ed4f3db58d76U,
  0xbdba7956bcbc0e9dU, 0xbe14845fbdd160afU, 0x3c893164bdb976dbU, 0x3d67b7063ce8a6d8U,
  0x3d3f07423e129d84U, 0xbce6c01abc967b44U, 0x3d1710503d78f346U, 0x3e186363bc93b4daU,
  0x3e1fc6393e4da5dbU, 0x3de208c23e283a93U, 0x3e1109a53e82ed78U, 0x3dc6b82f3dd34ba3U,
  0x3d99bb493decc971U, 0x3e0f18823cc872b6U, 0xbe297ddfbd1d0e18U, 0xbe88fa68be77ee83U,
  0xbd8b0821be8d166fU, 0xbdbeec90be3cac24U, 0x3d04012fbd0722cbU, 0x3d256cfebd39b4b2U,
  0xbd92f5dd3d850635U, 0xbcfcbc203d23b634U, 0x3cf3163f3d093bdeU, 0x3ec229cc3e5a281dU,
  0x3e95395b3eccacd4U, 0x3e91f8903eac0ba4U, 0x3e930a983e64db30U, 0x3e91966f3ea410dfU,
  0xbb9e75693e41d21fU, 0xbc72b9973c6208f6U, 0xbd939dccbd1745d6U, 0x3cc4d7093b5f0419U,
  0x3c6b70083d76b137U, 0x3be11fa0bd0f4fd5U, 0x3d2e51a6bd4d3358U, 0xbd1839943c6dbbe8U,
  0xbc2fdb893db4e986U, 0x3d5ff7cc3dba26d8U, 0x3e5677f33c1992dbU, 0x3eac27b73eb0bbafU,
  0x3ed488563ebc35d0U, 0x3e60daa93e8c90afU, 0x3d5d5cf73d9477abU, 0xbd1588a23ccefac3U,
  0x3cafb668bd9f1438U, 0x3d899329bc31a4c8U, 0x3c10cf88bd4f0a44U, 0xbd9dd258bd21b26eU,
  0x3d878d913d4e6322U, 0x3d22b102bbfefdc0U, 0xbd8feab63d91ede9U, 0xbd9dc099bd53ece1U,
  0xbdabe005bbcd66a0U, 0x3c1c17503d0dd120U, 0x3dcb5281bcb1ab68U, 0x3c0101383d185914U,
  0xbcc025d83c97abfcU, 0xbcc014ba3c3d4dd0U, 0xbd90fbebbd4b02cbU, 0x3d73e21a3caecdc8U,
  0x3ce84308bd465eb9U, 0x3d61bc0e3d82ad0bU, 0x3c700a503d880017U, 0xbd21b64cbc931cacU,
  0x3b0fbe363d8ab68aU, 0x3d8c10e7bd4b1a5eU, 0x3d7e7b803d24d1daU, 0x3e318d263d2882e5U,
  0x3e1d196e3e9926e9U, 0x3d589f5a3dc5bae5U, 0x3e11ef2a3e2f8965U, 0x3e93418e3e8d995bU,
  0x3dca8e0d3e234f59U, 0x3dd6b42a3ceb4c61U, 0xbcd529983da6ec1fU, 0x3d49756e3cb6e670U,
  0xbc4c7ac8bd0c853aU, 0x3d87f2bc3c289641U, 0x3b9be5fc3e15e6a9U, 0x3d0cc8693d5e6a3dU,
  0xbd1e5db93d59bac7U, 0x3e31a67f3dd2d44bU, 0x3e4a90843e3b09e1U, 0x3e83c4843e2a0649U,
  0x3e6dc3bd3e98a431U, 0x3ef169d93e6f9117U, 0x3f0632b93f063291U, 0x3ea5624d3f018d4aU,
  0x3dc4f1f53e15ab4dU, 0xbd38f2a73d62c976U, 0xbc9832283bc84aa0U, 0x3d6078423d6f93f4U,
  0x3da7aa633d60fc7cU, 0x3d71aec83d26e75fU, 0xbd9606533dc09ed1U, 0x3baa75cdbd1b8212U,
  0x3e02779bbdad55dcU, 0x3ddf98963b8e40a7U, 0x3e17dadb3d7ba41fU, 0x3e6f11ee3e732edcU,
  0x3ea34f223e2f4aafU, 0x3e96ca4a3e89a4f8U, 0xbc4bfaf13e14904eU, 0xbd116a68bb82a6b6U,
  0x3c87c3643d2a4522U, 0xbd940f20bdcccf75U, 0x3e21b3f03caaa783U, 0xbd4009a23b863d8cU,
  0xbe404854be1c0b1aU, 0xbe15d459be8ba12dU, 0xbd11ab03be523567U, 0xbd826377bc1f6fb5U,
  0x3dcb3ae9bd855f39U, 0x3d02e9353d25eed5U, 0x3e08b8f03db1e08fU, 0xbbcad71fbc45fabdU,
  0xbd8f0bebbd4529b2U, 0x3dad6067bd8bd386U, 0xbd16ef473b6c9520U, 0xbdd433ba3b97c6fdU,
  0xbc1648f93ddfc728U, 0xbe3b34873d6719b5U, 0xbda894acbe52c7fcU, 0x3d904252bd72609aU,
  0xbc023676bbb70f61U, 0x3d78b45cbd7d5638U, 0x3d9aeef33c4fed99U, 0x3dba6f68bb21b9e3U,
  0x3d1693a23dadebb4U, 0x3d2d757a3d31bb4fU, 0x3d7a33ff3d944366U, 0xbdbf55923d260425U,
  0x3ca5b974bc8b75b4U, 0xbd92734abd248bebU, 0x3d3177583e0987a4U, 0xbe35812fbc9a4fd6U,
  0xbe1326c8be1c961fU, 0xbaa1b00ebda79db2U, 0x3bdecb09bd841ffeU, 0x3e2793e13df7d3aeU,
  0x3df1ad4d3d5672b0U, 0xbcafb58a3a6a7d00U, 0x3d8fb6d53b55e089U, 0xbccd0c96bd394d9dU,
  0x3e04bdfdbd8d27adU, 0xbd72cc543dccc7e3U, 0xbe0bbf343bab8e30U, 0xbd87653fbd0aa189U,
  0xbcad46ce3de6fd2aU, 0xbe4269fcbda3004bU, 0xbe4ad59dbe7e449cU, 0xbd93e3fbbdf99e92U,
  0xbd7d70fe3d830dc7U, 0x3de5a674bd5cfa94U, 0x3d468af43d22bb08U, 0xbcd0bc153dd52f27U,
  0xbd7a9e863dd32bb0U, 0x3d50bd5e3cd5f278U, 0xbd5a6fbb3d61e5d1U, 0x3d32d8103cb6b378U,
  0xbe0918f43cfcf68fU, 0xbd8dcc23bcc11813U, 0x3d540d48bd488f64U, 0xbdad379dbd836aa7U,
  0xbde25fcabe8c79c6U, 0xbbe8b8b23d227487U, 0x3de6be713dda25ffU, 0xbdc2dfc5bd8e5087U,
  0xbda0131b3a6a89baU, 0x3c5f3a013d0b7002U, 0x3daf0ca7ba7ff312U, 0xbd2053613d47f9ccU,
  0x3d5f84fe3d4603a3U, 0xbdb4396f3e67a004U, 0xbb923cc73cc3c72fU, 0xbd72f4c4ba87176aU,
  0xbd8dd9ffbda32881U, 0xbe4823c3bdc1e9b1U, 0xbd11d4a6be0c031dU, 0xbc0517e23ca190e8U,
  0x3e1f5fdd3c5de438U, 0xbd9ed114bce534c8U, 0x3b9e00eebdc49ec5U, 0xbc31ba87bd025176U,
  0xbcce4c443cef8a6bU, 0x3b422ea4bd96ff83U, 0x3e0d4fe83d0deedaU, 0xbdac4b0bbd3aa2c8U,
  0xbd551cbabd513617U, 0xbde57f46bd9d5c12U, 0xbdf47657bd485b50U, 0xbde61e96be21dc02U,
  0x3cb6c5383ca940d4U, 0xbcaa138dbb4a9ff0U, 0x3ce3937c3d17fe02U, 0xbe19190b3e00e6d8U,
  0xbe0c4bfdbe1f28d1U, 0xbd2aab27bcdb53feU, 0x3d09b333bd93f5fbU, 0x3d6b19af3d8a6e1dU,
  0xbd21f15fbc9c80dbU, 0xbb3a5886bdd12153U, 0x3d15e928bcd2d13cU, 0xbeab987ebde48964U,
  0xbdafc92bbe49f2bdU, 0xbdbe0608bd898498U, 0x3dd08086bd3b96f6U, 0x3d50a03e3cee59edU,
  0x3d2c3ef13dc5a83cU, 0xbd928b4fbc72931fU, 0xbcd3c7533c92e4e0U, 0x3bca94143c5658eaU,
  0x3bf07292bc19758bU, 0x3d1382343d803b56U, 0xbe189050be430741U, 0x39ca66f0bdaa2db3U,
  0xbdc7380b3d1f433cU, 0xbe3aab00be024485U, 0xbd9df229bdaa668bU, 0xbb3530a4bc1eac63U,
  0xbd068e2f3c66195eU, 0x3d43944c3d370187U, 0x3e4de1c83d578b04U, 0xbcbb8080bce320caU,
  0xbc8bcd263c4a6dd1U, 0xbcdf6040bb90c545U, 0x3e01f1003ddbe7beU, 0x3da9bb373da0abbbU,
  0xbe730af0bce92591U, 0xbc0b5e83be0d4298U, 0x3d8f52483d7f8da6U, 0xbe20bf4f3caab02cU,
  0xbdedc5a83dd338bcU, 0xbbfee9d5be07741dU, 0xbcd9267abd3b895dU, 0x3ce705913b72d3a5U,
  0x3ddc7f4f3ca62c5cU, 0x3e0880c2bd43187fU, 0x3aa2af133d0e61c8U, 0x3c762c5fbcc72dcaU,
  0x3df193b83dd0032bU, 0x3da3e03f3e29c44fU, 0xbe648043be5446e7U, 0xbdb7a6f6be1b736eU,
  0x3cfdfdd23d286bf3U, 0xbe67f3c6bdd51463U, 0xbd72def43d2a4cffU, 0xbb547cdfbd80bb00U,
  0xbdd30f2dbd087111U, 0x3da87ab83c69a59dU, 0x3d0030cfbd7fcd29U, 0xbd36e0babb75d6faU,
  0xbcf155c23bd8d9f7U, 0x3cf06e6abc976714U, 0x3e43462ebcd58240U, 0xbe31bb6e3dbf019dU,
  0xbdf5e46dbeb6c2ccU, 0x3d4034ffbd5dfc00U, 0x3b3d22c0bd7fa853U, 0xbd0cf9dbbe102a18U,
  0xbddd1ad93df0fa16U, 0x3cb7861dbe143c32U, 0xbc820f5cbb34b481U, 0x3b98612c3ded0484U,
  0xbd1038d53e01ac45U, 0x3c8fbf2fbd2c3125U, 0x3cf2c9843c543f03U, 0x3ca80152bc587780U,
  0x3dbe5e8b3cc904d7U, 0xbe0591613d8436b4U, 0xbc868080be495f2bU, 0xbd32eba0bdca6fcaU,
  0x3b01d445bdc8f780U, 0xbbd86dda3c534a93U, 0xbe3f68713d83e61bU, 0xbdf14f27be56fe41U,
  0xbd17749a3b88d444U, 0x3d52f53f3b035e1fU, 0xbd27ea5c3de73f97U, 0xbd41b13c3cfbdab3U,
  0xbc5bad263c847104U, 0x3c6dadebbce1476eU, 0xbd2fed033c9c6a44U, 0x3deab5613cc36dcfU,
  0xbe01c5cdbde61540U, 0x3db0f595bd99a4f2U, 0xbd92b7453d8acc7dU, 0xbc2bbd753aa9a0ccU,
  0xbe8547c9bccd7c50U, 0x3d0bbb2fbe041e9cU, 0x3dc01aec3d8bf39cU, 0x3db2aa253d85fb42U,
  0xbde934d13c97ed62U, 0x3d4033433d807e7fU, 0x3d191a693d556dadU, 0x3cc2ba77bd81caaeU,
  0x3ca5df3b3c0f5ec2U, 0x3cc3bc903d42b9f2U, 0xbe1803cbbe13a971U, 0xbd1789273d941372U,
  0xbc6030c53dc12568U, 0xbd9842ab3c671936U, 0xbe16f49ebe2cbd32U, 0xbdb3ae9bbdf979d2U,
  0x3e097bd53bdda179U, 0x3da685173cbbfab4U, 0xbe161becbcceb8e3U, 0x3d20cf2bbd5dcca9U,
  0x3d3d3f163d87db0cU, 0xbd01b7c3be07d519U, 0xbdfaac0bbd44b6a9U, 0xbe189cfbbe241692U,
  0xbda72ac4bd940be2U, 0xbd86b7983dc96cfdU, 0xbd4ff9b03d812227U, 0xbd085e02bd8a6220U,
  0xbd3189a3be84a21eU, 0x3cbf3e1fbe062688U, 0x3cb289be3dbb36f7U, 0x3dabd04b3d3f0d71U,
  0xbe0a1bdf3cf7542cU, 0x3c85f99bbdc9e919U, 0xbd48fcd2bd174309U, 0xbd7034c5bccf2b70U,
  0x3dce00b03d7e5379U, 0xbe0a2bd53d303561U, 0x3be1432bbd23225cU, 0x3bfb219c3d9af7ffU,
  0xbb241b87bba62150U, 0xbde8a417bd952e0fU, 0xbd303165bde1b18aU, 0xbd88687abd91f31fU,
  0xbdaee420bc57ad9fU, 0xbd867c72b9bb5db0U, 0xba84786cbb2969a6U, 0xbb22f95cbdfdfb41U,
  0x3c93ab92bdd013f9U, 0xbd88ae60bdbf3082U, 0xbcfbb53cbd7f094dU, 0x3c7021d33c6c93e3U,
  0x3d75c305bd009c94U, 0x3c89ca59bc7e30eaU, 0xbd5bfc46bd84a78bU, 0xbcc205533d98e47bU,
  0xbda637bd3bca5b0cU, 0xbc8c22e4bd0f9a73U, 0x3d41968b3caf5b7aU, 0xbb9af055bd645418U,
  0xbcf516d03cf3f13bU, 0xbdc940efbdb0aa49U, 0xbcf94db7be295531U, 0xbdd22c1ebcc9cc91U,
  0xbc2d4ad03c73dc46U, 0xbd69f921bd68b3abU, 0xbb88e158bd81fdc5U, 0xbd8e104b3d8c0238U,
  0x3cf551efbd1cd5f1U, 0xbd131595bb1651bbU, 0xbd23b5fabcb41237U, 0xbd4966a9bd25c0cfU,
  0xbd3548b3bd058441U, 0x3da47ee93dab1f3bU, 0x3e1aa5423da3a061U, 0x3d856c083d15c9faU,
  0xbc34795abc8546adU, 0xbce3861abc8f169dU, 0xbe18e070bc834654U, 0x3d8e070abd8755c6U,
  0x3d32e56c3de5f488U, 0x3d7d1b7dbd55a7dfU, 0xbc61cbf83cc43e84U, 0xbda10134bd431dffU,
  0xbde3057abe2a3b83U, 0xbd4259a03c545f01U, 0xbd2052273daa6cf1U, 0x3dba9acfbcf22108U,
  0x3d460b383df96590U, 0x3db70fc33d61da55U, 0xbd20e3743ce8e506U, 0xbd2447babd7e8581U,
  0xbd8c63113a9f0440U, 0x3dd49832bc51a89aU, 0xbcbaaa833e15d709U, 0x3d99e27bbdf5d551U,
  0x3d8598a9bc3eff98U, 0xbc84a2b2bda8a8b2U, 0x3c8b7d64bdebf4dfU, 0x3c7d4378bd4f225dU,
  0xbc5c649f3ccdf1e4U, 0xbd88786d3c3a3e91U, 0x3d9a0eae3d5230afU, 0x3e1fa4553c32bd13U,
  0xbbb159d03e0f719eU, 0x3d27ad043db4d88dU, 0xbdc00cc43d9b706cU, 0x3cbddf0a3da7f7baU,
  0xbd4b4b313b042a02U, 0x3da3216b3a2a2854U, 0xbca58dccbd460ffdU, 0xbd8d7add3d8332bcU,
  0x3d71065fbd84b959U, 0x3d431ff33d6bf607U, 0x3d2a74e5bcefc7daU, 0x3d4e71b63d92ec19U,
  0x3df3dd50bd4628f7U, 0x3d8b617a3cb34c67U, 0x3e8d005d3e6a42aeU, 0x3e3a67433e876e55U,
  0x3d6a49bd3e825f9dU, 0x3de22c333e0c299cU, 0x3d066ddf3e1155d8U, 0x3d0d60a0bd8b80f3U,
  0xbc488bd8bcf02586U, 0x3ce1f2aa3d9e48c7U, 0x3d0c9c473e4e0e47U, 0x3de132aa3d92c582U,
  0x3cbe2b653dbc0a56U, 0x3d9073183d3c9de3U, 0x3d6273a93d925a63U, 0x3dec1c103e582302U,
  0x3e45860c3e3b72c9U, 0x3e80e1eb3e8a5c77U, 0x3dc019bc3de483f5U, 0xbb7387f63d017b46U,
  0x3d16ea32bd92a07eU, 0xbda95ba7bd0ab2b8U, 0x3d8a3a8bbd855966U, 0x3d22e58ebd4b059dU,
  0x3c29e9013d901f81U, 0xbdaa8e56bcbcc379U, 0x3c8c0dd63d526575U, 0xbd56608f3cc87983U,
  0x3d1b23b2bda4a039U, 0x3d8728423dccaf11U, 0xbdd0b21dbcd45b16U, 0x3d20d4e8be00a318U,
  0x3d1101023c8cb878U, 0x3bb62bb03b9cbdcaU, 0xbce6dc54bda05e1eU, 0xbd37e101bc878a34U,
  0x3c82ecf4bd29e86bU, 0x3da87aedbc7e5c40U, 0xbcf061ecbda2969dU, 0xbd5cfaf13d40a45eU,
  0x3bd882f03d7b88aeU, 0xbd50d6613da3e475U, 0xbd9468e33d540cf7U, 0xbd07e6fb3d49dc43U,
  0xbd0d930d3d97fc65U, 0xbda3410b3d328a36U, 0x3bc41b803d137f02U, 0x3da501e5bc99f44cU,
  0xbc7a4eb0bcb3f6deU, 0xbcc9905abd8a573eU, 0xbd06f64dbc59da50U, 0xbc8da3443b8eb120U,
  0x3d861822bbd10082U, 0x3e0532603dfc76d8U, 0x3e41aff43e200686U, 0x3e5941683e9ccb00U,
  0x3e91db443eb9cb84U, 0x3d87eab73e13ba7dU, 0x3d1092a7bca08646U, 0x3e7d48193e2230a8U,
  0x3db068473de86b61U, 0x3d9174453d9db722U, 0x3d07358a3c84e240U, 0xbcf41e3c37941000U,
  0xbc03ae18bd85b16dU, 0xbcf0c7d23d95ccbbU, 0x3d4449fdbccf930bU, 0x3e8774c13e69a765U,
  0x3e50148b3e863f2aU, 0x3e893ab23e9ffe75U, 0x3e3ef5ab3e46069aU, 0x3dd300c93e58cd8fU,
  0x3e76e2eb3d94e02aU, 0x3edb6eef3e903622U, 0x3f1578923ec33cd2U, 0x3e91874b3ec02beaU,
  0x3d1751683dd4ccaaU, 0xbda6969cbd5488a4U, 0xbd8a71f63d0ca8a4U, 0xbd74191b3d72280cU,
  0x3df00b2dbb99f1c3U, 0x3e3062973e184bf0U, 0x3e1cfe8c3e52f5b3U, 0x3d68953c3c65b341U,
  0xbc869157bd94b573U, 0x3daefed93d7c6b9fU, 0x3d74c7be3d87504dU, 0x3dde252b3daed0bfU,
  0x3df956723e3e3988U, 0x3ea5573a3e8fd351U, 0x3da1e1453e37184cU, 0x3caa35b83d90df63U,
  0x3d910f853bffd5f0U, 0xbdb0a32d3c637b3dU, 0xbc9bf2303d57e8caU, 0x3daf1ef83d4468d8U,
  0x3cd34e6e3cc819b8U, 0xbde0129fbcb6cc73U, 0xbd886458bdfe63c5U, 0x3be779ba3d0d551fU,
  0x3d6b695dbcf86341U, 0x3dc84dcd3c566e52U, 0x3d7fd0773e05d5afU, 0x3e29cfee3e14e78fU,
  0x3c95454d3dc72040U, 0x3d87033dbd9ba856U, 0x3be092a039a5b800U, 0xbd03effcbcaf7874U,
  0xbdb43773bcb98bc8U, 0x3d108e31bd7f7126U, 0xbd4a086cbcb5be5aU, 0x3ba10cd3be044de1U,
  0xbd0c38723db40639U, 0xbd0c9e5d3d88c42dU, 0xbdaf00acbd2bdb41U, 0xbd02b4c2bd6d2c64U,
  0x3da331c53d96527bU, 0x3dcb9a703d3cf95dU, 0x3c7bc5a13e1b011dU, 0x3d00a383bcd72ef7U,
  0x3d7b480a3d96dd4dU, 0xbe1533b6bcd015f2U, 0xbdf88c2fbdfefb54U, 0x3ce6fe56bdbdb735U,
  0xbd877452bcd1a351U, 0xbdaa0b84be19797fU, 0x3b501a58bcd10af1U, 0xbd0b4896bc6268b8U,
  0x3d53b697bd52de83U, 0xbcbcc541bbae5d41U, 0xbda578ccbc2ed952U, 0x3da017acbd3848b7U,
  0x3cf317933dca3fc5U, 0xbd423af03b32a86fU, 0xbdb810713d0a4b52U, 0xbe0155513d195c79U,
  0x3cd93460bd7b922bU, 0xbdc01db4bd94e9e8U, 0x3cf78f133ca6f50bU, 0xbdef3e2bbd9c97fcU,
  0xbce8fc6bbdde5dbcU, 0x3ba7c68cbc255224U, 0xbbad2d79bde341a4U, 0x3c4f127d3d8f372aU,
  0x3ddb1a163d380041U, 0x3d78c07b3d770264U, 0xbddd2929bcddb16aU, 0x3d99a6c2be1510bfU,
  0x3d537ddc3d3baab4U, 0xbc822fdabac02b88U, 0x3ce00514bd9b93f5U, 0x3d95a3ad3cfd1dcfU,
  0xbd2f7692bc1cd5c8U, 0xbdf16ebbbded44c3U, 0xbdacab64bdae6460U, 0xbd20ad28bd262bebU,
  0xbe078350bc9ff6b0U, 0xbdb53bb8bdc8cff0U, 0xbd8fc16dbd4f8ef1U, 0xbe205f443c91474eU,
  0xbd9985b0bd3afbbcU, 0x3da0d0473c7b1fe1U, 0xbcbc23ddbd9b6ac5U, 0xbda7560dbd54e044U,
  0xbd267598bdae3884U, 0x3de3072fbc39c55cU, 0xbc9e237e3ba4a47aU, 0xbe1e0c9bbd95a6acU,
  0xbd965f9fbe0bed15U, 0x3cc6faf6bd943ed5U, 0xbd08c4b23d578d11U, 0xbdb42b17be165079U,
  0xbd93b15e3b8938e2U, 0x3d4741f8bdd09041U, 0xbdb2cc59bd7c71aaU, 0x3c818c75bca71fa1U,
  0xbdc70d3dbd1761e0U, 0x3cb1c3f6bdf5f0beU, 0xbdaea8fc3d9799f2U, 0x3c8017a43dc05103U,
  0x3cd8a8363c956edeU, 0xbd2d3b3c3d0d9fe0U, 0xbdcbca10be41db59U, 0xbdda2a9dbcec7c91U,
  0xbe050354bde80085U, 0xbe0de31bbce8c425U, 0xbe417500bd9a714bU, 0x3ceed0bcbde91ec2U,
  0x3c8a00fc3d57b2c4U, 0xbda256eebd0bd17bU, 0x3cee95843cc7f17cU, 0xbd0f0be2bd0f0e5dU,
  0x3e05aba8bd0c1f86U, 0x3d95f8fe3e268057U, 0x3d81a2383dab4b69U, 0x3c5954423e03e734U,
  0xbe3ce652be0dfc6dU, 0xbdbb9628be38e699U, 0xbe815b6bbe60623fU, 0xbe0d8e49be1151eeU,
  0xbd586853bdcd5381U, 0x3db45cad3ce51999U, 0x3d40dc933e53e5b9U, 0xbb3ff2553e2f7741U,
  0xbd9dae32bd2f41d9U, 0xbe149ad13c98394bU, 0x3d3a584d3d3bfc1dU, 0x3e27ed843da633ccU,
  0x3c3c99bf3dd43f93U, 0x3d6a1e133dc9a85cU, 0xbe347a0d3ca89e9cU, 0xbdf837cfbe795928U,
  0xbbb35a5ebd981120U, 0xbd92b2adbdbae94cU, 0x3d4c4c8d3a8392b4U, 0x3e43a1533e1c2cbaU,
  0x3da571263e0dfee7U, 0xbddceaefbb661ae0U, 0xbc24a56abc3fe706U, 0xbd19059bbd24e903U,
  0x3c66f99bbc889e00U, 0x3de707eb3d00f801U, 0x3e2e263c3dd3d875U, 0x3e0232023e37a956U,
  0x3c60243f3dc425a0U, 0x3d0766b73b50efacU, 0x3cc86e223d797589U, 0x3dabfa38bd12d26aU,
  0x3da568473dca8a21U, 0x3d41e60e3e3b64d7U, 0x3b7a16ba3db359e9U, 0xbd03470fbe02715cU,
  0x3da37bea3da8e047U, 0xbc2c3cce3d3792f2U, 0x3cc071f2bdb979fdU, 0x3daeb08e3da96c48U,
  0x3e0ac9f03db444f8U, 0x3deafeae3e2d3c00U, 0x3bfdebbe3dc593e8U, 0xbc18bab53d632e6dU,
  0x3e05c6f13df0d5d4U, 0x3d855fe53d1fea7fU, 0xbdd4ca64bd643c3aU, 0x3d578b54bdb52144U,
  0xbb60af1cbd40395aU, 0x3d113ec5bd94288cU, 0x3bab631bbd191d65U, 0x3e3cf8cb3d73580aU,
  0x3bf6b77bbc97a43bU, 0xbd78282f3da3f1f8U, 0x3e042f053dc79621U, 0x3df130333e195ea2U,
  0x3cede96f3df523a7U, 0xbd10f0fc3e1c9f44U, 0x3c91d8793d08f150U, 0xbd183b323d51d7fbU,
  0xbdf345c3bd1f4ee1U, 0xbd913d653d3466d7U, 0x3dc2d6183cc50383U, 0xbda852c4bd93c357U,
  0xbc9e3a63bcccb3d2U, 0x3d39c442bd196ec4U, 0xbde487d0bd7587cdU, 0x3ccbc60a3da0d707U,
  0xbce6747c3cde53b6U, 0x3d8d6b1cbaf8e0e7U, 0x3e22b0f13db6d96dU, 0x3d80a3913d9731a9U,
  0x3d6dbe083d50d350U, 0xbd898c3b3c835936U, 0xbda7beb8bde07b5fU, 0xbc5a2030bc83e9a5U,
  0x3cf26bc5bcb6cb0aU, 0x3cdd5f16be44dcc9U, 0xbcd66c64bd198d0dU, 0xbd6bdefdbd900f8dU,
  0xbdc50dabbe45e6d8U, 0xbcc4c303bcac625cU, 0x3cb253a23d4d895aU, 0xbc5ccdea3cd09695U,
  0x3d247de63dd76a3dU, 0x3d0e69713af40315U, 0x3de189d43cf27029U, 0xbc138f6d3d068f62U,
  0x3d8f8e8838c397aeU, 0xbd1234cc3d0afd68U, 0xbdc8a8dfbcc0e2e5U, 0xbcf4a6afbe0b8179U,
  0xbd1a8d52bd6ef12fU, 0xbe4310cc3c8773aaU, 0xbe0df4e2be67c879U, 0xbddfdab2bd9bbefdU,
  0x3d46ab2bbc5f8f03U, 0xbaf3110a3dd82cd1U, 0x3e0908503e47cb68U, 0xbbcf74603cb049f8U,
  0xbd55e5a13c81182eU, 0x3c66df83bdea38fdU, 0xbd397591bcdf60a9U, 0xbd94204abd6545d3U,
  0xbe1495e4bcca1be2U, 0x3cb3b807bc6f8233U, 0xbd796fe23d927eeaU, 0xbe091a9abd53225cU,
  0xbdd6edf6be78448fU, 0xbdb2d11ebdc5a900U, 0x3b7537d13d7b0ee8U, 0x3d7163ad3bbd4e51U,
  0x3d7f6f193ad3284bU, 0x3bca3d54bd048df9U, 0xbc2a6ff6bdd78a19U, 0x3d331c20bd55ba7dU,
  0x3c74f9913d0a78f3U, 0x3cdfee0dbd6e1ff0U, 0x3c622abf3d8ced7cU, 0xbdddd107bcfa6724U,
  0x3d4876ba3d917af7U, 0xbda74d92bd907d18U, 0xbded0c5ebe82b0a8U, 0xbd21ecc3bd3e9217U,
  0x3d1eca073c7f7957U, 0xbd2746cb3ddc3651U, 0x3bd9b2a83dc23b60U, 0x3e0ce0003d309d94U,
  0x3d82a905bd888806U, 0xbd073e573d7698c3U, 0xbd4195373c8fe99aU, 0x3db181edbc0479a9U,
  0xbda8bba63d8dfcd3U, 0x3c8517bb3cec56f7U, 0x3b75b90a3d3d9f03U, 0xbd962e2d3c859a69U,
  0xbe26f96ebe899edaU, 0x3d32674bbdf5d0ffU, 0x3da2f21c3d246d33U, 0xbcdc7d5d3cba990eU,
  0x3e11ed783c1e24adU, 0x3d8a19553e06ffe4U, 0x3d9fc196bbc963d0U, 0xbbe350f63d9e16aeU,
  0x3c9251dcbdb18008U, 0x3e107b143def37bbU, 0x3c1188083dbbf76bU, 0x3a87b9f8bd85c304U,
  0x3ccd9d0ebc77c8acU, 0xbd28a2263c85da97U, 0x3c1247a1be0ebc54U, 0xb8747f74bd195852U,
  0xbd15fe48bcc0cd2bU, 0xbc0af2d23b0f1824U, 0x3cba50a23dbe01e2U, 0x3d620eaf3d41c763U,
  0x3d2b754e3e11018eU, 0x3d2896fcbd1530a0U, 0x3d3ccf5b3d92119bU, 0x3d562a2e3b2f04b2U,
  0x3cc15fad3d95c72dU, 0xbdab5cb13b1eababU, 0x3d5c369e3cb0ad80U, 0xbd077699bb2f0349U,
  0xbc4eeae4bc93c4e7U, 0x3bb091973d8de345U, 0xbb7108c03cd21f57U, 0xbc7bbf413d7684a8U,
  0x3d26dc78bd87e3fdU, 0x3d4dadc6bc96b5b5U, 0x3da9c0573d27bac8U, 0x3da9ab633e18c403U,
  0x3e077b8d3deb30a2U, 0x3e2d467e3d9d73a5U, 0xbc20bfc23da6cc60U, 0x3d35ad82bd8a0605U,
  0x3d8fd82f3d3716f6U, 0x3dcf13d43d114596U, 0xbc1150e93d2a2552U, 0x3d8c40a13d0cc653U,
  0x3dd948013da30a91U, 0x3e3f43c73da39220U, 0x3df34c023cd65019U, 0x3dec4f8b3d97b7c9U,
  0xbcd06ed03dd6456bU, 0x3dec3a813c18fb2dU, 0x3e18ed513e2f9817U, 0x3e0cff753dbbd25aU,
  0xbc69f201bd0370cdU, 0xbd82594cbcf58c5dU, 0xbd771366bd858cb0U, 0xbbb2b9953dae8e2cU,
  0x3ca636163e03970cU, 0x3c1097bd3e21211fU, 0x3d92f3183de9298cU, 0x3d64e1ab3dcfafcdU,
  0x3d6ea0893da60bb5U, 0x3d02daaf3d9b528fU, 0x3e01506f3dce4da3U, 0x3e551bee3e4fea53U,
  0x3dc4cde0bbbfa0fcU, 0x3e436b873dfae8eaU, 0x3bbca40b3d538a97U, 0xbd05275f3bbbcf10U,
  0xbd87b2e13d886d2fU, 0x3d4fc56d3da44427U, 0x3d8df2ff3c90d7d2U, 0x3da65fee3d8749e1U,
  0x3d0a65ab3d8696ebU, 0x3e3b261e3d179decU, 0x3e0d42a33e82dd19U, 0x3c2bc38dbd51ba0dU,
  0xbbeca7103de109f1U, 0xbce77cff3dffa797U, 0x3d9678233d6e7c5eU, 0x3d5c1f63bd584b4cU,
  0x3d4151be3d44ffbaU, 0xbda6ee4a3d68d41aU, 0x3d4f2686bc9e66b8U, 0xbd418d143d3f4fd6U,
  0x3d0bdcec3d723b9bU, 0xbd5e613c3bb43bbcU, 0xbc771a51bd4ac9a2U, 0x3ddcb5b03c6d1f2dU,
  0xbd034b7b3dd18091U, 0x3cb7fd193e0db11cU, 0xbc639834bd1ccad6U, 0x3d06e65ebc179566U,
  0x3d1bcca5bc9f4490U, 0xbc11c2c2bd5f3b8cU, 0xbd05cfb5bd8c86d3U, 0xbcc5b724bd66974aU,
  0x3ce314883d94f565U, 0x3cf2d2183da68e4fU, 0x3ca9251cbc8dc49cU, 0x3d96dc3dbbcd0590U,
  0xbd8dcc2cbcc63d18U, 0x3d1bd5a2bcad971cU, 0xbd13c24ebcf2e42eU, 0x3da4eeadbda9f989U,
  0x3d889ba13d9c2ab5U, 0xbda2f728bd27ba50U, 0x3d90f9e93d024e88U, 0x3c2e29c03d9088f1U,
  0xbb232ce03d23f2c0U, 0x3ad1f3403d5d42a6U, 0x3d96ac373d89d4d5U, 0xbc90a198bd0470b1U,
  0x3d75685a3d117864U, 0xbd317c9fbe09c222U, 0xbdc4b188bd805313U, 0xbe0849b1bdbd273eU,
  0xbc363074bd1fee13U, 0xbd9ed9c8be2a9d98U, 0xbe024a28be097378U, 0xbde6fc0ebd4f21a8U,
  0xbd155682bd0239d3U, 0xbdc25856bd42db95U, 0x3cb78b44bb199a20U, 0x3d956685bc5f6af8U,
  0x3d9e0329bc718bd0U, 0x3d5d082dbd3bee54U, 0xbd4171f53db66322U, 0xbd58a117bb5185ecU,
  0xbe2c01cdbe0e7e79U, 0xbe9eac72be9b359dU, 0xbed706e9becd80f3U, 0xbee9817ebeb92dceU,
  0xbe8e3b83beb28c67U, 0xbe628732be858167U, 0x3d36950fbd4d48dcU, 0xbcee8e38bda496deU,
  0x3c89b7293d39d2fdU, 0x39b353003d60fe92U, 0xbcd2b2f0bd2fe37fU, 0xbd7685f03d63344eU,
  0x3d687e8d3cba6255U, 0xbe011680bddc202eU, 0xbe5b870dbe5cbd97U, 0xbe8f363dbe829c29U,
  0xbe775b93bebe3924U, 0xbebfd917be7d95beU, 0xbe83fc6fbe1457efU, 0xbda29155bdb9daf6U,
  0x3dc7e4f8bb8b344dU, 0x3d96525f3dc6fef7U, 0x3d4214bd3d24c15eU, 0xbda40d013d3c74efU,
  0x3b3052a03c3b4058U, 0x3d22cc1cbd8f2dd8U, 0x3d8253f13ce7ac5dU, 0xbda9f9f8bdb2722dU,
  0xbe2e88ce3b9abc98U, 0xbd682be6be502099U, 0x3caf9998be1730ceU, 0xbe32c533bd91dd23U,
  0xbd7a4ca3bd569931U, 0xbc6478cdbd3111dcU, 0x3dcf5f023e5372e3U, 0x3e36658e3e5683cfU,
  0x3dcf62093dd2ee63U, 0xbd2f90253d52cfc1U, 0xbd4aabccbd44f1d4U, 0xbd083e97bd4ee21aU,
  0xbd6522743ddfe9edU, 0xbe318e063d089dbcU, 0xbc5cdcb3bd81ae58U, 0x3d377df13da2b6c5U,
  0x3cf3cc863d5dce25U, 0xbdc8f131bd3744b2U, 0xbe039d75bd9a2b4cU, 0x3d10d86bbd9e504fU,
  0x3d8a1345bae403e2U, 0x3d605b5f3e278df4U, 0xbbe7634dbb6618a6U, 0x3c36db3bbd4876e9U,
  0x3c39308bbcdf9c24U, 0xbc973dfa3d68c74fU, 0x3d4e5ab13db05b3fU, 0xbe0d6c5bbdae33dcU,
  0x3ca6df33bb8689a1U, 0xbc9fc352bc6ed93aU, 0x3d5912263c83a746U, 0xbd9dc328bcb4f905U,
  0xbdce00cc3d017be5U, 0xbdc87326bd39a64dU, 0x3c7426563d241eefU, 0xbdbcdb0abd18f5f8U,
  0x3de603203d3e8da4U, 0x3db2d6613ca89b60U, 0xbd1c0171bd15100cU, 0x3dddb9f33e1e0316U,
  0xbd391e42bd0b10d0U, 0xbd9082f4bd1e5f95U, 0x3cbb3f4e3caabf48U, 0x3cf70e753df72e32U,
  0x3dce8c923c84cc00U, 0x3d8ba751bd4e143aU, 0xbdad7010bce10c55U, 0x3d63eb6dbcf57a8cU,
  0x3c8a71d83c834744U, 0xbd61db43bd93e2daU, 0x3d1a66813d700a6eU, 0xbd9a230f3cccf5e0U,
  0x3d87153cbd59546aU, 0x3e80297c3e83563cU, 0xbdf4f983bc07dfa6U, 0xbdc9187bbe13dbbfU,
  0x3da57cdb3cbe3271U, 0xbd0705783c942d50U, 0xbe05cb80bd9f23eeU, 0x3e13a50fbcd4d6bbU,
  0xbc5878e9bccf0584U, 0xbded99063cd9c98dU, 0xbd6f492f3d395d84U, 0x3cf23841be12dec3U,
  0xbc9b62e3bbd77949U, 0xbb50498ebd66edaaU, 0x3e119b10bc0b1d80U, 0x3d0ad7233e3615a6U,
  0x3d85ce5fbdd7762eU, 0xbd511ad7bd9ba947U, 0x3db4394f3c5b7866U, 0x3cb642233cee5fb3U,
  0xbde61b37be136555U, 0x3d00e9433d0e0807U, 0x3d2fb8003dd7b42aU, 0xbbb046153dbfc76eU,
  0xbda6e6393d0b6430U, 0xbd0d80a5be2b980dU, 0xbe538f583b95079cU, 0xbdc3375ebde144cfU,
  0x3e09bd113d174a6cU, 0x3df212b73df523dcU, 0x3de53e803da1f9abU, 0x3d900f383b262cc2U,
  0x3dd3fd213d8de803U, 0x3dc185ab3deb13e3U, 0xbe152e9dbcdfe8b6U, 0xbc267490bd479240U,
  0x3d8c56213d0cfb9fU, 0x3e35f20a3d997d42U, 0xbd863d413d10dcaaU, 0xbde6c00abd201622U,
  0xbd17efbabe4a0c64U, 0xbdedb469be293239U, 0x3e014db13d07c727U, 0x3c0c14683dd1c334U,
  0x3ca19dc1bdb47446U, 0x3dd8e71b3d5f22c1U, 0xbb88c9e03d6309d5U, 0x3da465ac3e0b1846U,
  0xbdf53c0bbdce5567U, 0xbd2e339cbe13b07cU, 0x3d0fffff3d4eb5aaU, 0x3dc6e2243c5962aaU,
  0x3d78cdd23d1de544U, 0xbce4044a3d3cbcd5U, 0xbe882673be13db1bU, 0xbc0cf0cdbcbd1c73U,
  0x3ce1ac5fbd0c2ca8U, 0x3d0bb21b3e809805U, 0xbc8c53583c817f1eU, 0x3caa9b8d3de26befU,
  0x3e0a7a883d96a69cU, 0x3d591fc93deb90d9U, 0xbe32c19ebdd0b665U, 0xbe24adb6bd90a239U,
  0x3cc49b48bcd736cdU, 0x3d429972bc39d80cU, 0x3d6eed013de24961U, 0x3df262ca3db6a18dU,
  0xbddaf5c2bd969c54U, 0xbd95b1e0bdac079aU, 0x3dd5c65ebd6a88a2U, 0xbd3a9fd13e7390e1U,
  0x3a2f6009bd2994d5U, 0x3e0f7dce3d0731bbU, 0x3dfbf9f83e2cbbd6U, 0x3dfc8a5a3e25e237U,
  0xbe3bc3513d510f03U, 0xbe31c24abd7ca0bbU, 0x3df50fb63d8c72deU, 0x3d3a64953d89287aU,
  0x3df2298b3c2dd5b3U, 0xbcf7efed3df3fe72U, 0xbe2252c6bdd759a3U, 0x3d1e7662bc513380U,
  0x3d9dbcf83d78b555U, 0x3bf8dbc43e4f2707U, 0x3cda53963de5d9acU, 0x3dcb84583d67f651U,
  0x3e1a032b3d177368U, 0x3c4ef8c63e2d9ec1U, 0xbdabfbfdbda40ff5U, 0xbd4d83d2be1051a0U,
  0x3d4a46f53d2e5f44U, 0x3d3f322f3d5c8347U, 0x3c793a803dedd14fU, 0xbcf68be53d184f58U,
  0xbd83ad23be070b11U, 0x3c42c024bd52f1b9U, 0xbd73dd6bbc1e635eU, 0x3d9c67603c4fac3aU,
  0x3dd5d50f3de82daaU, 0x3d90febf3e07484bU, 0x3e08a1ff3cfea5f1U, 0xbd4070333d3ded5cU,
  0xbe1b06cdbceab6feU, 0xbe69cb0dbe6d0344U, 0x3da2e7b4bd750bb5U, 0x3ca03a783e0bf9eeU,
  0xbd8789fd3d1ec31cU, 0xbd9639d2bd81e035U, 0xbe236828bdd626a2U, 0xbbe4187ebe2418e4U,
  0xbcd8256d3d72c399U, 0x3cdad9ff3d7af3b0U, 0x3bf20e843cf3b4cfU, 0x3e30efa33a5a149aU,
  0x3d7139b93e442dfdU, 0xbd538884bc9a7fabU, 0xbe0ee833bd761984U, 0xbddb6fc7be6902feU,
  0xbb95f3673cc9f176U, 0x3d34cef43d917492U, 0x3c09904b3d31d8daU, 0xbe7424af3b630240U,
  0xbdaee30cbda2da62U, 0x3d519a4abd87cdfdU, 0xbc80e3d7bd35d905U, 0xbd807d353beb2638U,
  0x3dca77e93dd017f9U, 0x3da5c8f03da7781aU, 0x3d7c75443e17f4b3U, 0xbccee0a53e1f2f3aU,
  0xbd8bb8913bec41feU, 0x3d593a4e3c24f801U, 0x3e0999203d471c9fU, 0xbd83736f3d717a28U,
  0xbd78fb9bbd3ed3f4U, 0xbe1b697cbd88f9cdU, 0xbdb187fbbc4c191fU, 0x3d59f47ebd2f18d2U,
  0x3d8b7a48bd317321U, 0x3cc67cffbcb72444U, 0x3dc00e6e3d1c5cacU, 0x3e02654bbc5bbe11U,
  0x3d82a1173d2dd437U, 0xbd97ff8fbd9e6b88U, 0xbde5e31fbdf9ada7U, 0x3cfa35733d16adbfU,
  0x3de7f12b3dbd1df2U, 0xbbb96d933dca73a4U, 0x3d45676cbc87ba8dU, 0xbdd746c4be0628f7U,
  0xbdddd8bebdf16435U, 0xbd92f77e3c4180e6U, 0xbcc26564bcf215daU, 0xbd750042bd3a01c7U,
  0x3d27b87e3e25d99eU, 0x3d1dd7843d8a74ebU, 0x3d0761283d84250fU, 0xbdca21f8bdb4888dU,
  0xbdc294c3bde077ecU, 0xbd523b603ddfc714U, 0xbd53fd32bd9c93cfU, 0x3d81acce3d9995b7U,
  0xbe001998bd9233feU, 0xbe10389abe0da45eU, 0xbdb049c5bd5b06edU, 0x3aa9b1b8bcdcf650U,
  0x3dd6fba9bd2dc6c2U, 0xbd82d0c4bce00d50U, 0x3d549c593dfafa8eU, 0x3c3d602d3da0b456U,
  0xbe46fc383a42de59U, 0xbd97b823bd6947a3U, 0xbd9171413c6ccb86U, 0xbd81d76fbddc8581U,
  0x3c3f5bc4bcf59cd9U, 0x3d45ff293da6a410U, 0xbdc767bfbd6359fdU, 0xbe249731be3f8064U,
  0x3d81fc9a3b630c1bU, 0xbd301d193d164bd7U, 0xbd9d3decbd3f45f2U, 0xbd7d567abcafcd04U,
  0x3d19d7d23d97257eU, 0xbd8ff5323c3f64c7U, 0xbdccbdf8bd5965b0U, 0x3d968049bcb7b334U,
  0xbd558855bcdb5e97U, 0xbdfb7d36be614c5cU, 0xbdaccb78bc03de78U, 0xbdfa0803bdaf5e0fU,
  0xbd38df06bd2e3e71U, 0xbb35cfea3c6dd777U, 0x3e2223423d667d88U, 0xbc846ba9bc1406d5U,
  0xbd883f99bd76227eU, 0xbe18d509bdd9d341U, 0x3c6b385cbe245d91U, 0xbd103b9dbd14e96bU,
  0xbd4d329a3d40d46cU, 0x3d831af83d57001aU, 0x3dc34a2c3d81b4f6U, 0x3cc5aa1fbdf03338U,
  0x3d44a3f3bc328401U, 0xbc63daedbd83d8a1U, 0x3dd18c53bd5a8fa5U, 0xbd1f170ebd0aaac9U,
  0x3de997703e1ab866U, 0x3d56fcf53d8dcac9U, 0x3d1955b83c6fd728U, 0xbe28cc69baf40cf1U,
  0xbd433c33bdb115d4U, 0xbdaa47fbbdb74842U, 0xbd8d72703d267165U, 0xbd2ea7713d3284f7U,
  0xbd1f2e3d3dbc3b25U, 0x3d8ca2a63b95c702U, 0x3d454bc03cef8b30U, 0x3d97e1733dde5370U,
  0x3db47e49bce30932U, 0x3e1c83173e063cefU, 0x3ae5658b3e4e5d8bU, 0x3d9b1a97bdbafe0cU,
  0xbd8aab5a3d8db9ffU, 0xbcc1f510bc324057U, 0x3ca69d613ccd6003U, 0xbd6e23cfbe13d28eU,
  0xbc441fc1bdbb1b99U, 0xbdb3bd583cf3db9aU, 0xbd33f587bdd1f212U, 0xbde684c4be1c9494U,
  0xbd2f1c8a3d0ca884U, 0xbc9390543d1fd86aU, 0x3e2763c73de5a0a5U, 0x3d398e693e2d1697U,
  0x3cab93c73da0e154U, 0xbc4eb6b03d96622fU, 0xbbe975803cd1d250U, 0xbd12bb84bd773f93U,
  0x3c68b93f3d54f1b7U, 0xbd83d747bd5e0e49U, 0x3e4a0d913c1231afU, 0x3c0d1a0c3d89bafbU,
  0x3d341fa9bce158f0U, 0x3c0e32af3de7270fU, 0x3dc83bde3d8e0f5dU, 0x3e1e2a82bd8b72bbU,
  0x3e9426623e84b0c9U, 0x3e1b5ab43ea7f2b9U, 0x3dbc69d73df423e0U, 0x3d3772f63d3ed1ceU,
  0xbd73680a3d8dd315U, 0x3d9b00033d345c0eU, 0x3da55bf83d9adcebU, 0x3e287b7a3ca77be9U,
  0x3ec6f84f3ea991d7U, 0x3e8c6b933e6b2580U, 0x3e19e05c3e347d28U, 0xbbcdc8ad3e205054U,
  0x3dcb025a3c9835d7U, 0x3e3cf15d3dfb5cb6U, 0x3e89ff093e9a4d22U, 0x3d8c27da3e5dd8d4U,
  0xbd48b51ebcf9781aU, 0xbda0ede7bd33cdd2U, 0xbd8642613cbaafccU, 0x3daa93ebbd6be39dU,
  0x3cafd12c3ca60daaU, 0x3d8295393d8a1482U, 0x3dcf1c9b3d9e42d6U, 0x3deb6ba53de7ea9cU,
  0x3e3653a63dcb8789U, 0x3e18fd763e0ffe58U, 0x3e6f22013d61f895U, 0x3d5adcd43d46e21aU,
  0x3d27f72b3daf93f0U, 0x3d9f07bf3dd8d382U, 0xbcde0a32bd524a06U, 0x3d3609023da2a33bU,
  0x3d5673323d4690d6U, 0xbcc0b33e3d60f8beU, 0x3dab6601bda30a10U, 0xbd8c938f3cc63f14U,
  0xbc8a8ecc3d322462U, 0xbc4e98583d7bde56U, 0x3c8fe3a0bd89964bU, 0xbd3e93333ad695c0U,
  0xbcfe6fb83d9ad2ebU, 0x3d2bb8dabd9768d8U, 0x3d8f17cfbd31ba6bU, 0xbd8db92f3d7ccb3aU,
  0xbd39e860bcf66342U, 0x3d49aaf2bd3d18f4U, 0x3d80e7a5bd90f2c5U, 0xbd0690453d53e76eU,
  0xbd70c878bdabc8c5U, 0xbd2b9ef0bc288ba0U, 0xbca8bad9bc895058U, 0xbdeedec9bd2a2df8U,
  0xbb408238bd2cf558U, 0xbd7d2aaebcdd7b9dU, 0xbd881ffb3cee78f4U, 0xbdbde2bebdc5cffbU,
  0xbd402208bd394e17U, 0xbd0953a73c13809dU, 0x3bbc8e10bd83485aU, 0xbcd45f983d063f74U,
  0xbcb645063d25a29aU, 0x3d4e7283bcc01126U, 0x3d2d16f8bdae2e34U, 0xbd4aa4663d7d2ddaU,
  0xbd819400bde86f93U, 0xbe0b22e13b75ee9aU, 0xbe3202b9bc92c022U, 0xbe0b4048bd926421U,
  0xbe49081cbe16c868U, 0xbda412a6bdc45dd5U, 0xbd007ff4bde99540U, 0xbcbf2607bdc9edecU,
  0x3c675008bd1456f1U, 0x3d046402bc1ef858U, 0xbd2e19b23d7e39a2U, 0x3c8ae7a03d74bab2U,
  0xbc95b0aebd4764c5U, 0xbd40e6b4bc609b08U, 0xbd8b1be7bcc7e2baU, 0xbdd269cebe2d386dU,
  0xbc4ed3d0be11148eU, 0xbe4b8895bdc88828U, 0xbd389ca9bda08257U, 0xbe1196cd3d831bc5U,
  0x3d1fc192bdd4c621U, 0xbcd590c1bc25bbccU, 0x3d60d712bc7ae918U, 0x3d0f70c83d8cb300U,
  0x3c11f9d03d984901U, 0x3d5b26bbbd958ae6U, 0x3b6219d63d778308U, 0xbe389ecbbd3cce96U,
  0xbe145dd8bd95ab82U, 0x3c60917bbd038eb0U, 0xbd7c9da23b9fdfadU, 0xbd5d9431bda1f7edU,
  0x3dfef3a4be05f60dU, 0x3d8844e4bd1f695dU, 0x3e01f40a3d17a9e2U, 0x3e09e7c33e07aa10U,
  0x3d0f0f4e3e1abef7U, 0xbd8acd41bb2a4793U, 0xbd0e57f7bd3e43abU, 0x3c9ce6e4bd6c32d0U,
  0xbd27b7b9bd64232aU, 0xbd28e3e33bfd4d68U, 0xbdb0525bbe1cb66dU, 0xbdcb8adbbe3feef5U,
  0xbc9b6938bd506e2dU, 0x3d272ca3bdd75fc6U, 0xbd909ffcbaa91449U, 0xbe7ba0aabe7c01beU,
  0xbdd7819fbddeb045U, 0xbc0329da3dadfe8fU, 0x3d8beca33c8e2e95U, 0xbd44b8373a59a05eU,
  0x3d25c95abcf0b3eeU, 0x3de91f88bcfebaf4U, 0x3e070fff3e30dd40U, 0xbd40c8e6bd130ca8U,
  0x3cb8a7e6bd630ad4U, 0x3dbe83dabd8a781cU, 0xbd409d59bc3b9b82U, 0xbc2f96b63d97964dU,
  0x3df95ea23d53d985U, 0xbe1e14103b72a000U, 0xbc28edbfbd5edcf7U, 0xbe06b375bd97492bU,
  0xbc39163a3cf769e3U, 0xbddbe2d93d90eadeU, 0x3d84d7433c05a778U, 0x3e4401e33e69bb0aU,
  0xbd24f68a3d62f655U, 0xbbf61a423dbda223U, 0x3c5a2558bd4e51feU, 0xbcc4c3ebbd6a5c65U,
  0xbd9092c5bc5280d0U, 0xbd1fed163d83cdfdU, 0x3d9808a03d0e535bU, 0xbd34ecb63c507665U,
  0xbd4acd103ca42074U, 0xbbf8bc393d598fa9U, 0x3e07eb463dce10f3U, 0x3d070f6b3b0311b4U,
  0x3d745608393754c8U, 0x3e1bc8a03e53bde6U, 0x3d6ae0503dad7266U, 0x3de914c43dc4f16eU,
  0xbd232d0dbc3ce7e6U, 0x3bf4bc34bd0295caU, 0xbd8fb1e33d9243b2U, 0x3d8935f93d45a38aU,
  0xbd961cacbdbceaaaU, 0xbcf07666bbc316bbU, 0xbd8262aebd42409aU, 0xbc28dd413d8cb9fdU,
  0x3b2a04f53dd10c16U, 0xbb23be76bbe34286U, 0x3e6d2f3f3bf4050eU, 0x3de9f0b13dfa29d7U,
  0x3db8c5203d7a17caU, 0xbc1bdc833d77d490U, 0x3cc9a228bd8bcdb5U, 0x3d0ac7b83cbe3c1cU,
  0x3c8230c7bbadc71cU, 0x3dd965c33ccd8b35U, 0xbb96a99b3c58e8f8U, 0xbc0304e2bd83c52fU,
  0xbc186110be18cd24U, 0xbd6f5518bca0491eU, 0xbcda17a4bd1b5c07U, 0xbe017be9bd48a9b8U,
  0x3e205619bd2d52dfU, 0xbd4eab193e81a0abU, 0x3da386fb3dc38aa0U, 0xbd44b5743b51414eU,
  0x3d17cd74bcc814deU, 0xbcdf31e93ca1be4bU, 0x3d4f81d03d1ce8dfU, 0x3d6be1063da6bb3fU,
  0xbd38b92f3da2d430U, 0x3b0b1644ba69522aU, 0x3dc13cd63b456a44U, 0xbd838c513e36fb7cU,
  0xbb32e0e5bdb29281U, 0xbb50517dbe260913U, 0x3e26b95e3db07e8aU, 0x3e2d13aa3e54ce5dU,
  0x3e079e8c3dfeb0ecU, 0x3de172143d29c118U, 0x3d77357e3dd97428U, 0x3d2ea2a03e055c12U,
  0x3d82f4573d1886efU, 0x3e0698283dda9a3bU, 0x3cb6ec6dbcb1ea73U, 0x3d902b95bce694e6U,
  0x3e1890b63ce6eb13U, 0x3d71aee43da19e50U, 0xbe2ffc96be70d44bU, 0x3c960d7bbdd39658U,
  0x3e5004de3dcbd93bU, 0x3e54005b3ea18a05U, 0x3df9cc3d3dbf88d9U, 0x3e2a518b3b259355U,
  0x3bc2f33e3d034c6fU, 0x3d655ffcbd0edf8eU, 0xbdcf70b4bc15265fU, 0x3e241a2f3cdd8ae5U,
  0x3d963dcc3cd64cd9U, 0xbd86daa83d5d1a30U, 0x3dc476e53d703aa5U, 0xbce609b83df1f30dU,
  0xbe3ce508bdf60dcaU, 0x3d523f3bbd66c258U, 0x3de88da63c182e44U, 0x3de874c03e89a98cU,
  0x3d003e193e0ecfe1U, 0x3e05b2733d6129b9U, 0xbce8db463d954d3dU, 0xbcb91d643c2b1eb2U,
  0xbd8f99bfbe003260U, 0x3e13be413dae05b0U, 0x3e0603723d434805U, 0x3c36f205bd08f700U,
  0x3e0c05453e3fe103U, 0xbdb6ec3f3e288eebU, 0xbc83e4b9bd8f1869U, 0x3d6d36edbd660e1eU,
  0x3dd6fbe8bc14ff2fU, 0x3e3ab0353e531275U, 0x3e1e09ab3e3d9a8fU, 0xbd29d42f3b44db2aU,
  0x3b9f9cb13db9bd8dU, 0xbd9fe2503d97063bU, 0x3bfa3db63cd11e1cU, 0x3db8b2073dc7e751U,
  0x3e12e6703d1ad116U, 0x3e4a38643d1f8c0dU, 0x3d8809173d990a52U, 0xbc8012153e242e91U,
  0x3bb803f33ce400e8U, 0x3d686d6cbddf0913U, 0x3daeb4b6bc098fc4U, 0x3e846e223d9ea28dU,
  0x3c87315e3dbf272bU, 0xbd9d37573b7c10a4U, 0x3d43db1abda378fcU, 0xbd0261f63d19279dU,
  0xbc0d506bbd9b293dU, 0xbbf8c52f3de2494fU, 0x3e2a0a313ddc761fU, 0x3d1d9fe83daa7613U,
  0x3dd997b33e06343bU, 0x3e54b4f33db377dfU, 0xbbdb2ae2bc93a33eU, 0x3d895bb3bb97f462U,
  0x3d49639e3ddbd5adU, 0x3d4ed3373bb2b8d5U, 0x3ccc10c33e510a3cU, 0x3dcb52383d3c4c56U,
  0x3d15aac33de40472U, 0xbd73e0fb3c672b79U, 0xbd0c44c13c2af853U, 0x3c3d2fa33db410b8U,
  0x3ce208f23dd9ebcbU, 0xbc3a0b663c9c28b5U, 0x3db3a70d3cf156e8U, 0xbd005ba33d9726c3U,
  0xbdcd1b37bd9f3a40U, 0x3ddb10c1bd2911d9U, 0xbb40abde3d49441eU, 0x3e3bd57a3b8b4b28U,
  0x3c05751c3de92107U, 0x3d95a5453caec403U, 0xbdd948883d061000U, 0xbe1df457be24729fU,
  0xbda05cc0be69321dU, 0x3cf850f73dae88b9U, 0xbdb752443cef4131U, 0xbe1d482dbccda0f6U,
  0x3c87403ebdd23e46U, 0xbcd61b32bb71ba84U, 0xbdc9e1c2be5d671bU, 0xbc2bd6e7bcd93128U,
  0x3db5445f3db9340cU, 0xbb9c036b3dbc085aU, 0xbca0c42a3e0b651eU, 0xbdc6c650bc85347fU,
  0xbe9dc37abe804f40U, 0xbe68250dbe8c30d2U, 0xbd7344dabe1ebb4cU, 0xbd6694763d6246f7U,
  0xbe143d2ebe0b64c2U, 0xbe0137f2be273cfeU, 0xbd6d6ef4be5b10b6U, 0xbe364ef1be86acdcU,
  0xbcc00450be4e4f9fU, 0x3deb2723bd01a999U, 0xbc32934bbd27d95aU, 0xbcc57b2c3e1d62edU,
  0xbde1367bbc5b292eU, 0xbeb17a2ebe0414d7U, 0xbe823e75be8851dbU, 0xbd95f777be1a9cb5U,
  0x3d25c2a9be134e61U, 0x3cb097ff3dc3715cU, 0xbe0f90dcbd247283U, 0xbd7186a2bdcecb37U,
  0xbe406fd7be8f0965U, 0xbe76960fbe97db5aU, 0x3d1a0b9d3b7aaaefU, 0x3d9699e23d5c2daaU,
  0x3ca311963da0c9c1U, 0xbdb3a57a3cc40ffbU, 0xbe58229dbd212717U, 0xbec9a2adbe8f5539U,
  0xbe18665bbe2b766fU, 0x3cf589debdf016d8U, 0x3d2b312e3cf99a56U, 0x3d26bbcf3d26a2f2U,
  0xbcfcdf4fbd478cefU, 0xbe18738cbdd5fd04U, 0xbd89d94cbe587a4bU, 0xbe0830f4bdce986eU,
  0x3deede253d07bb68U, 0xbc99d19a3cea036dU, 0xbc657bbdbd9cbcc0U, 0xbdd72d3ebcd6cdd0U,
  0xbe7c8da4bdb3d60bU, 0xbe6cc35abedb62e8U, 0x3d83f910bd7bd582U, 0x3c64461c3dbd9b81U,
  0xbdbdc1c7bc7a9830U, 0x3cbc1454bda30ddbU, 0x3d050c963d999ea0U, 0xbcf77406bd5d5277U,
  0x3d086fc4be1a8bc4U, 0xbda2e894bdf532d6U, 0x3e21bf86bc1b844bU, 0x3c149e58bb9df104U,
  0xbd8689ae3c5ec80aU, 0xbe16521d3cc418c8U, 0xbe8d861abe28addfU, 0xbe49a530be43c0adU,
  0x3df89a00bd3ca8b6U, 0xbd4748d73e1335a0U, 0xbce5a5223c81867eU, 0xbc9b42de3c80e847U,
  0xbcb8cac03d26f8acU, 0x3d38bc043d4cf093U, 0xbd114fce3c24fe63U, 0xbe200ef9be05bc02U,
  0x3d7c95eebb3de828U, 0x3c506868bddbbf74U, 0x3d61e89ebca41d54U, 0xbe1cff8a3d344858U,
  0xbe74f7bfbe5ce5a6U, 0xbde06ac9bddaad48U, 0x3d2e78b9bca57746U, 0xbe047d613d090505U,
  0x3d5cb7a23c90082aU, 0x3cc116e53d922df6U, 0x3d9eca1e3d9d323bU, 0xbda2d7183d3a3522U,
  0xbe1eb962bde3fd37U, 0xbe2bab9fbd2d49e3U, 0xbb35cbfd398fa260U, 0xbdab4e12bda1f2c2U,
  0xbc4821f03c142140U, 0xbd93cf3dbd057a8eU, 0xbc41bc8cbdf9ae6dU, 0x3db258cb3d5d2bd2U,
  0xbd951714bcebdd05U, 0x3cee4e0bbd0f4b26U, 0xbdb06961bd87c9eeU, 0x3cff12a6bd9be48aU,
  0xbd76bc2ebdbec9feU, 0x3ca68bf9bd52f2a4U, 0xbdc696edbc1e95a7U, 0xbc87632bbbc321e7U,
  0x3ae22678bd482347U, 0x3caa52483d011b0cU, 0xbccd6400bda3e07fU, 0x3d89e110bdaf2ca2U,
  0x3e422e5c3d3100bbU, 0x3c0da6de3d219437U, 0x3d2378e23e2c5846U, 0x3d493a0e3d2e53a7U,
  0xbdd10c85bd8ac56eU, 0xbce437dfbd316f8aU, 0x3d24203d3bc27e10U, 0x3df3b5a13e00ef8fU,
  0x3e2315b63e14b3c2U, 0x3d82ca563df613c0U, 0x3db538593e216ee4U, 0xbd092960bd39d0d8U,
  0x3c1ad9d8bd3b0178U, 0x3d5a4fdc3c4452c8U, 0x3da411813da58329U, 0x3d84c9943e124e07U,
  0x3e5c14a23e1eddacU, 0x3e0d53df3e02e8b1U, 0x3e47a8573da44a8bU, 0x3e0c5c9d3e289806U,
  0x3d96791d3e3af4dbU, 0x3e702b8c3e88fb5eU, 0x3e0e90e63de3d321U, 0x3c6922883e11c1f6U,
  0x3cf2c5983c332f54U, 0x3d80ef25ba4c4e80U, 0x3d2803023d54ce8eU, 0x3c1d56e0bc95841cU,
  0xbc5b31de3d117efcU, 0x3e6241123e1b439eU, 0x3e75feba3e794abeU, 0x3e97104c3e3ab4d5U,
  0x3e8f53393e4ae9f2U, 0x3eaf77463e70d29fU, 0x3e9000c63e8354f6U, 0x3e31013f3ea4af34U,
  0x3e1000813e186e6fU, 0x3d83d75c3cdcb80aU, 0x3d8afc0d3cbf49c0U, 0xbcaebabc3c9abe18U,
  0xbcb9c9723d0a7244U, 0x3d5224363d24e3b2U, 0xbd917e6a3d992525U, 0xbd9ed34a3da4c537U,
  0xbd21d0ab3c721440U, 0x3d2de2ea3c3dd338U, 0xbd27580c3d32b91dU, 0xbc5de5313d70e47aU,
  0xbba552b03dab5809U, 0xbd86e407bcaf4c0cU, 0x3d15d1b4bc184ce0U, 0xbd9318eebcff2a6aU,
  0xbcc45754bc14af58U, 0x3d20b09c3d764992U, 0xbc85ab74bcbd7f3cU, 0xbc1d67b03d634ec2U,
  0xbcc2e637bd33fe9bU, 0xbc88e8263d3e7da6U, 0x3d486932bd82f180U, 0x3d8b244cbbb72f91U,
  0x3e286d3a3ca6d730U, 0x3e63cee73e0b3833U, 0x3e14baf33e2b543fU, 0x3de716cb3d91ba9dU,
  0x3db356c63e213f26U, 0xbd995b2ebd3ae539U, 0xbcc5dbc6bd91ca7fU, 0xbcea87703d40988eU,
  0x3bc71c303cfbde5cU, 0xbd943c513d73f0f0U, 0xbc6ca77bbca5f271U, 0x3ca16fc2bd1804caU,
  0x3dfb61113cdab779U, 0x3e3e932c3e0877caU, 0x3e2acb5e3e2a8dfaU, 0x3e5dfca23e4f9ec8U,
  0x3e8f9c1d3e551987U, 0x3e8258513e9acd23U, 0x3ea6676d3e07e15cU, 0x3e6a900f3e732abcU,
  0xbc8531f63e183ff1U, 0xbdaac3b83b281c60U, 0x3cfdc1c43d904a6fU, 0xbc942085bc13c992U,
  0x3ca28ac6bb91febfU, 0x3e5138c83dc462c8U, 0x3e29d75f3d3858c2U, 0x3da6f6673e838597U,
  0xbc85dddf3d983f4fU, 0x3de449423dee7ee0U, 0x3e43d4983dbb6a84U, 0x3e1f6afa3e40b5b7U,
  0x3ddca1bf3dda439dU, 0x3dd203e63e72d8bdU, 0x3dc0e6dc3dc6a397U, 0xbcb850443d8be3e8U,
  0x3d88360fbd87eb32U, 0x3de315683dc7cc3cU, 0xbdb13b64bc29e1a6U, 0x3e303ad93d5bf4bcU,
  0x3db4bf6d3d156e27U, 0x3d6c7d2f3d960cf0U, 0xbd4f9669bc5f44bfU, 0x3c9113ba3c26d1a4U,
  0x3da020b23cfe23dfU, 0x3d830f6a3d7b77d4U, 0x3db2ac62bd2756f2U, 0x3d084a2e3d2d79c2U,
  0xbe18196bbe0e3feaU, 0xbcd35ad2be1b64d4U, 0x3d8480dfbc731d10U, 0x3da4d64abb2a8ab8U,
  0xbd04b3a13da76030U, 0x3e22200fbd699537U, 0xbdad10c23dcb46f9U, 0x3d80760bbbf8dc7fU,
  0x3acc45953b50f72dU, 0x3d09f5a53c1689d4U, 0x3dbe49e83d8c08d1U, 0x3df483eb3d84bbbaU,
  0x3dfde79cbcab944dU, 0x3deb74af3e372196U, 0xbe39933abd3e2f8cU, 0xbc446a9abddc13ecU,
  0xbd8e038cbd5329e0U, 0xbc9ce5f43dd409d6U, 0x3b4a0b823d3d929dU, 0xbcfbc6403d26b34aU,
  0xbdd12060bd851f31U, 0x3d855648bda554a5U, 0xbd23e4c0bbee2258U, 0x3b94969b3d407c55U,
  0x3d81b8f23de7f000U, 0x3de041343dee40a9U, 0x3d89ffacbc4bc112U, 0x3d06cbb93d0523baU,
  0xbe81c6afbc04b240U, 0xbd9b6b02be67fa53U, 0x3d71fa91bd07b2a9U, 0x3c0da3e8bbd2ba65U,
  0x3c3044593e075185U, 0xbdda2d503dadc7deU, 0xbcb15448bd59b346U, 0x3cf09fef3d49f45eU,
  0x3d76d02d3db375c6U, 0xbcb03bafbbd3e3a1U, 0x3dd94bce3d89f408U, 0x3dce3a773de34f7aU,
  0xbcc99681bd2e4567U, 0x3c43acbdbd1314e7U, 0xbe41ed5abc98dd9eU, 0xbe12c8debe30f62bU,
  0x3d6d82f33ced9fb6U, 0x3ce8954abc71b996U, 0xbc80eb313e1f04f2U, 0xbd93655cbdad275dU,
  0xbbe6d0f7bd670a25U, 0xbd4583c9bc5395d4U, 0xbc1969a8bd2add4dU, 0xbc82eac43df6a792U,
  0x3e0bc1a43da2d03eU, 0x3d9c1d08bd1b8daeU, 0xbc9d002dbdf5755bU, 0x3d0c8359be034528U,
  0xbe851c44bceb0586U, 0xbd2f821bbe8d0914U, 0x3d81e1fdbc9f4488U, 0x3dbcacf6bd4f6c21U,
  0x3d9a257f3e32f431U, 0x3c1e5d86bd8ec8c7U, 0xbd29bd51be0c2596U, 0xbda4c551bdfd14d8U,
  0x3d1529f13c914979U, 0xbdd27d66bd40905fU, 0xbd1d9542bdecf7e7U, 0x3dc4f3233d412c51U,
  0xbcaa8bfc3caefa2dU, 0x3cc1b2adbdf5680cU, 0xbdaf1817bc2688bbU, 0x3c4415b0bd9f3f83U,
  0x3d939a8fbd823334U, 0x3d892041bcf36af0U, 0x3d2b77a8bca9e043U, 0x3c98dbfcbcd5755cU,
  0xbb2bf540bda9dad6U, 0xbd0ead65bd4ceff5U, 0x3c89f812bd431a13U, 0xbe40d0a6bd9ebc1dU,
  0xbe0638e2be670c24U, 0xbd9dfa603d08a1c0U, 0x3d27eccebd976389U, 0xbc60374fbc9b6233U,
  0xbe1b7b143db57de3U, 0xbd4a232bbe042fb3U, 0xbc853d773d207ba4U, 0xbd6cf9033ab94662U,
  0x3d93cfdd3d8c0c13U, 0x3d037a18bdac74adU, 0xbd05db273d26a0a3U, 0xbd943442be25591cU,
  0xbd879292bd091f01U, 0xbea630c1be1279adU, 0xbe56744bbec671e2U, 0xbd10c2873b5b343eU,
  0xbd726bbabdf08566U, 0x3d7e3d1ebbdda5b0U, 0x3d14daeb3e88e37cU, 0xbd7fd0f5bdc02307U,
  0x3d5875b53c121bf0U, 0xbdb060b7bc4cd833U, 0xbd365b903df5943bU, 0xbd1f2531bd8fafc5U,
  0x3de4d2453c19bb88U, 0xbd7bd2113d2320e3U, 0x3c4ea945bc669e15U, 0xbea0e3babe87e770U,
  0xbe3fb418be42bd20U, 0xbe197521be0ea331U, 0xbdeccc18bc778030U, 0xbd62fadabe2bcfd0U,
  0xbdbe6c5e3e12502dU, 0xbbfe04c3bd54395dU, 0x3c8b5544bd9923d5U, 0x3ceb52333d932f22U,
  0xbc8b4cf43c824a6aU, 0x3dc6ba5e3daf52d7U, 0xbd507efc3d343e00U, 0x3c12eb443ab8afe6U,
  0xbbf5767b3d28c0c3U, 0xbe2f2d31be50e44fU, 0xbe36c095be37ccf7U, 0xbdd1e8bcbc8d8c0cU,
  0xbdedad44bd141e43U, 0xbd526b69bddab0a9U, 0x3bbf56233e7a28afU, 0xbd0fce5dbc4c1d5bU,
  0xbd65d1793ce93fe6U, 0xbd89f9ddbd8bfdbcU, 0x3decfee8bd80abbaU, 0xbbc1178cbcc489cfU,
  0xbd8962f13d03380bU, 0x3c9120ab3daf34cdU, 0xbe13efe5bbd85dafU, 0xbe03c307be1ca3d4U,
  0xbe180427bdddbaf6U, 0xbdbff8e7bd6fc641U, 0xbd4713ffbdf1f483U, 0xbb7cdecf3c408127U,
  0x3d79955a3d52f4eaU, 0xbc63c1803e55d8d2U, 0x3c82f3823d3b44b6U, 0xbd1c295bbcdf16d7U,
  0x3d6c23e9bcae4ffaU, 0xbc791afabb832b7fU, 0x3d9e25f63c82a7cfU, 0x3dd4f08bbbb0e37cU,
  0xbdad87323d8536daU, 0xbe2108aabdee5026U, 0x3c4b7e00bd3afa68U, 0xbc8543bfbc8ccd3cU,
  0x3d85249bbd926bbbU, 0xbc9709213cbc8d7cU, 0x3e6640f73e80f849U, 0x3dbe16303e93b161U,
  0xbd698550bc221bb8U, 0xbd8c7734be11f081U, 0x3d6f05babca60277U, 0x3d6bc021bd2c805eU,
  0xbd20dfd73d4c96ffU, 0x3d7a01c2bc3ddbaaU, 0xbd0a79903b2bb7f1U, 0xbdb931afbd5d5e18U,
  0xbcbaa0fcbccfcce4U, 0xbdc48b65bdc24d27U, 0xbd6c2f953d85d6a6U, 0x3d9fb5aa3d8dcdb5U,
  0x3ea30f383dbeccc5U, 0x3dbe72ab3e9a693eU, 0xbd8789ccbd4e8dfcU, 0xbd84be31bd79fa30U,
  0xbd1d549e3d29fb76U, 0xbce10e303c023778U, 0x3d009621b993d3b8U, 0x3db43f783e220276U,
  0xbd855029bc0e442fU, 0xbd95830abe3d7060U, 0xbad82cf93d91b1aaU, 0x3c636b20bdcb27d9U,
  0x3b830be83d470110U, 0x3a96959bbc2538cfU, 0x3ec6b6fe3db343cfU, 0x3da633493e5e6f46U,
  0x3d6b5701bd57b81fU, 0xbe0ec2d3be425ee0U, 0xbc6639043b717bb6U, 0x3c955794bd5c319cU,
  0x3d89e5c33d368ee2U, 0x3ce60eeb3e0bb3f5U, 0xbe4b5fdebdd79401U, 0x3d6c57d0bdd11ff8U,
  0xbcd5781dbd1e32f2U, 0x3d24fda53cbab368U, 0x3d44eae5bd8e8d09U, 0xbd825f0c3cdeddaaU,
  0x3eab65edbc09b073U, 0x3d93104f3e587abeU, 0x3d8848413d44d146U, 0xbe434f3cbde4a79dU,
  0xbd596ca2bcc4b510U, 0x3d85500bbc467fbbU, 0x3e1891113d330658U, 0x3d7314dc3d829631U,
  0xbdb061113cca4ab8U, 0x3dad9c34bd828addU, 0xbd6075a33cd4c8e6U, 0x3bcd2bdebd47435aU,
  0x3c4d2c123a66c6a9U, 0xbde2bd183b8b3ea1U, 0x3e79f6a6bd9a47a8U, 0x3cfe9e7a3e3ff985U,
  0x3d1f06f33d94289bU, 0x3d37a2ddbd07edfeU, 0x3da842e53d81098dU, 0x3da951d03df00647U,
  0x3db67da33d5c2571U, 0x3de3e6003e437d67U, 0x3ce05a043d1631f7U, 0x3d836d37bd22a0adU,
  0xbc8d7d76bbba0779U, 0x3a1090e2bdd08cd5U, 0x3dd12ac7bd12a436U, 0xbdf908b7bb17b7b4U,
  0x3e86408e3d7ec6bfU, 0xbd84b9773e02f54dU, 0x3cac0c07bc425538U, 0x3e8055893d6db920U,
  0x3e04fe91bd2ff650U, 0xbcee9f00bc724dfcU, 0x3e0f9a843d8a59a1U, 0x3da0968a3d72fde0U,
  0xbacc417c3e0375e1U, 0x3d264a463d915161U, 0x3ce44a2b3da071ffU, 0x3c72cad2bd11b3f6U,
  0x3c816da0bb8f1896U, 0x3cebe3d63d5ee567U, 0x3e3606323dba6b3eU, 0x3db7f1c23e137447U,
  0x3d12903ebb5c71a0U, 0x3e3613d63d047d28U, 0x3d940d00bd37f967U, 0x3d58e0813d130d5aU,
  0x3e47fc773ddff625U, 0x3d88797b3e21b054U, 0x3defa7b53e383d6fU, 0x3db5d381bd235c1dU,
  0x3e0174573d3f4b9dU, 0xbd87fd833df12c5eU, 0x3d9348bb3c15a1a1U, 0x3e01ec1f3e235190U,
  0x3e2e6d323e4e238eU, 0xbd6ae70d3e106c82U, 0xbcf029e6bd4d0b0dU, 0x3e43ec623d576cf9U,
  0x3dbbe55e3c95e6e7U, 0x3d96b9633dcae02dU, 0x3d676f803d68b2d5U, 0x3dfbee543e02dea3U,
  0xbcb432813d8f9651U, 0x3d1b6ad8bbfdb570U, 0xbcb738f93c69f0c2U, 0x3d5bc78f3dc3812bU,
  0x3e1af8173e003c27U, 0x3d96ef603e2487b8U, 0x3c00f3ec3d0118e9U, 0x3da166d13d6b35f2U,
  0xbd2b437b3bd11e00U, 0xbda5699fbd04d3e0U, 0xbcac4d0dbc56cf1aU, 0xbc985901bc11d93cU,
  0x3e2237fa3d860806U, 0x3a8362b83db29ed7U, 0x3e4315d23e137473U, 0x3ce34334bbcf6655U,
  0xbc5081963e26dcb8U, 0x3d8009dd3e7110f4U, 0xbdaeae69bd11441aU, 0x3dacc6f03dc6205fU,
  0xbd5eb79ebd1bda23U, 0xbd4852c0bd376e09U, 0xbda3695ebd5c4a78U, 0xbc98c18a39cb8040U,
  0xbe156b08bdd162d0U, 0xbd350dbbbd81edd0U, 0xbe25ca58bde936d0U, 0xbe7742d3be670336U,
  0xbd869a09be09c485U, 0xbdcdace3bd514a2cU, 0xbe1f4918bdb628eeU, 0xbde092d9be0175fcU,
  0xbddb1c6abdb620eaU, 0xbe062b82bcd40f39U, 0xbb99fc14bd8696ceU, 0x3ce16c80bb9f8abaU,
  0x3b7f3160bd072333U, 0x3d1d5aa03da24c09U, 0xbdbc9f3b3b85706bU, 0xbe196f82bdd31675U,
  0xbc0dd816bd96b792U, 0xbd9e19a6bc592f5dU, 0xbcdd9207bded1a83U, 0xbcd12c09be2344f0U,
  0xbdf3124dbd419f3cU, 0x3ba7a8b1bd93600fU, 0xbd8752403c844d89U, 0x3c684a833c031857U,
  0xbc31f1a03cf7f14cU, 0xbc0a58903ce26d10U, 0x3d5ef1f63d0a92f2U, 0xbd05cd043d31e83eU,
  0xbd8bffa8bcdd7fabU, 0x3d8ee163bda80d44U, 0x3d5a98773d670622U, 0xbdbb6683bd999ec5U,
  0xbbe1514c3d8d11a4U, 0x3c979c85ba8378acU, 0xbd3521ed3cf5e9ccU, 0xbd7221f2bd4c4b03U,
  0x3cfd890abd3c93f1U, 0xbcd8e9b03d5f30c5U, 0x3d9e05c33d9d034bU, 0x3ce412f03d191248U,
  0x3d2feefebd69f3ebU, 0xbd9102e63d646c72U, 0xbd52e788bcfda9a0U, 0x3d88cae73d5a955aU,
  0xbdabc154bc81ce60U, 0x3d6bb0523d86daa7U, 0x3da9e50d3d52da3bU, 0xbc9bf9d8bda3ec21U,
  0xbc8c7b2cbda1f181U, 0x3d74e8e23d01e486U, 0x3d433b4a3d58ad0aU, 0xbd8bbb77bc145c78U,
  0xbd6229e4bd40e360U, 0xba35de80bccecab8U, 0x3c6040b8bd633720U, 0x3d898d0d3d82f769U,
  0x3d48c86d3d97e12fU, 0x3d827a643d816b3aU, 0x3d0653653d343b21U, 0xbd9fd8ecbd707d44U,
  0xbcf60f42bdd5a9e7U, 0x3c990020bda96e0dU, 0x3d8ad9363de0962cU, 0x3cb292853d15daa3U,
  0x3cee3af4bce1ac0fU, 0xbd2fbd6fbd00a7b0U, 0x3d50a722bc918170U, 0xbd4749fe3d23e038U,
  0x3ce89e2cbd8d56b2U, 0x3d312b16bd2487f3U, 0x3d183e423c591830U, 0x3d4521473d74d68fU,
  0x3d4ddeb4bdae0276U, 0x3da3f22abc8f8530U, 0xbc40c3b7bcb3e7abU, 0xbd3b52ddbdaf16aaU,
  0xbdacfa8d3d17c925U, 0xbe137735be3a72b4U, 0xbd97ef66be404c1eU, 0xbddf7e4fbde9de42U,
  0xbd91bbaabd6c04d4U, 0x3d8d1837bd66eb6cU, 0x3d8932373c9d8764U, 0xbcc1e0c13de637c5U,
  0xbdb99f45bd868c3aU, 0xbd1c35bebc8ed1dfU, 0x3dbc0aa63de3be1fU, 0xbdc6e3683da1f78cU,
  0xbd987b42b9410cdfU, 0xbd699e01be01644cU, 0xbe14e240bd995236U, 0xbe5230afbe3a8b2fU,
  0xbe4723c2be24044fU, 0x3846182ebe1818aeU, 0xbdae33bb3bec815fU, 0x3c695f88bd9ceadaU,
  0x3d5a56b63d30aa9aU, 0x3d856c023c527280U, 0x3c3aed60bd023629U, 0xbbc55cfebc71b808U,
  0xbd649f0c3d841e9dU, 0x3deb93003c41c9bcU, 0x3d3468983e55aab5U, 0x3d5edeecbc29c665U,
  0x3d1afbcf3dff641cU, 0x3d2e3d0f3e08fad8U, 0xbd9c139a3d74a7adU, 0x3cf3c4dc3c9e3ee9U,
  0xbddb089cbd9ddba9U, 0xbd2ebc85bd51c8f8U, 0x3d533946bd9aa54eU, 0x3de018053d3b0e9fU,
  0xbcc7a4f6bcfbbc59U, 0x3e09d0cdbb49090bU, 0xbbd7339f3dd116cbU, 0x3df2bb133d6ebfb5U,
  0xbc9624e23e1aca40U, 0x3bd6ab87bc83d06aU, 0xbd7fc9533d1657bdU, 0x3d60ffcb3d9e9867U,
  0xbd20b7b0be1b4853U, 0x3dd093bc3d2a2e74U, 0xbbc19deabc59b5d2U, 0xbd8f4ad13bde8694U,
  0x3c65a3803d6954f6U, 0x3dc504b33c838ad3U, 0x3e4331173e42a0daU, 0x3d2a48013e01ce96U,
  0xbc87d5203dbc31a1U, 0xbb37ab123dc83bc9U, 0xbabc2ec73d20a3ceU, 0xbd8cdc0bbd9ddd1cU,
  0x3d2adaf0bcd3e9e8U, 0x3cbf21ccbdaee0d2U, 0x3c8ef8c7be12dcd8U, 0xbe2397d03d16148dU,
  0xbcf45fb9bb074565U, 0xbd429ebabdaf1354U, 0x3db1558dbcab90dbU, 0x3e0541093e73d6c8U,
  0x3e4f8be73e089aa4U, 0x3e01e3e33db41770U, 0x3e00c9e6baf9a6fcU, 0xbcff86d6bd885139U,
  0xbba147a2bdf8bf05U, 0xbe2bcf06be0e7b67U, 0x3d65754ebbf4965cU, 0x3dc3fedb3ba413c7U,
  0xbd3f5ac33bacadb3U, 0xbd5507ef3cf832dfU, 0xbe0183a5bd5fdef7U, 0x3cf852adbe1b8298U,
  0x3dc315a6bd87de60U, 0x3e9147293ea378c9U, 0x3df02e173e85bd4eU, 0xbcda83a93d3863e8U,
  0x3d9a64e83d773fe1U, 0x3c1936583d95b57eU, 0xbcb8a41b3d6e5396U, 0x3c5adc313de28673U,
  0x3d2e2335bbb748c1U, 0xbcbf42dc3d14b64dU, 0x3d85fecebc248e0bU, 0xbde91f9dbcacaa24U,
  0xbdc54277be22142dU, 0xbdaf4e1abe234266U, 0x3daf1fb73dc72433U, 0x3e5a78d23eb1bf85U,
  0x3e2e212e3deb108dU, 0x3d3180da3d50f1d9U, 0x3d9f77fe3d69b19aU, 0xbc84771b3bcb0719U,
  0x3da3bf0d3bab5c8aU, 0x3e1a520b3cea6e5dU, 0x3c5c49783d2a912bU, 0xbdb5a6853cd55de4U,
  0xbde9fdc2bd397349U, 0xbc40249b3c263c6bU, 0xbd829427bdab73d4U, 0xbd10a333bd779b8eU,
  0x3e2368ffbd2eb14eU, 0x3df6eb693eb3c7e5U, 0x3e07edd9ba1108a1U, 0x3c8a454abd0b7cf9U,
  0xbd339abbbc648517U, 0xbd9f78be3cf2e6e1U, 0x3d0b39a0bdd1c194U, 0x3e321ba43e23b841U,
  0x3d5c519e3de34b27U, 0x3a06fe0abd2a97e9U, 0xbd3d8ff0bd7b2117U, 0xbcbb2c2ebd1997c3U,
  0x3d90c0c8bdcc022eU, 0xbcf609f63caa5580U, 0x3d846fd63dcc196cU, 0x3e6ff6463ea42149U,
  0xbd02e5ce3de219d7U, 0x3d1e74703df61914U, 0x3db21a5d3d9cacb7U, 0xbd83aef9bd8d5042U,
  0xbe02da6abd85a099U, 0x3dee831a3dd1ef2cU, 0xbd826451bc85d216U, 0xbd069db93a399888U,
  0xbd330fecbe1dbe6bU, 0xbe611cdbbe341d7cU, 0x3c1aa618bd8be43dU, 0x3db292d2bbe449c8U,
  0xbcea29ed3abdb364U, 0x3e5fa9193e4bc9e6U, 0x3d531bbc3dcbf629U, 0xbd9b5365bdb3d9aeU,
  0xbd88837dbd720055U, 0xbe07004dbe122ecaU, 0xbc97a5153ce02825U, 0x3df945e63d457330U,
  0xbd00aea93ce72fb5U, 0xbdf4c7253d5978d3U, 0xbd09de80bddf590bU, 0xbd437abebe1315f8U,
  0x3e2837ce3cb99817U, 0x3da847753da4bf80U, 0x3c566f95bd73f985U, 0x3d9299f73e15d626U,
  0xbdfb50e5bda752a7U, 0xbe1d6c78be1ad41eU, 0xbdf84398be1858acU, 0xbba570dbbb4b65f4U,
  0xbcce9657bdf2704fU, 0xbcfe8a20bd327fe2U, 0xbd863afb3cc4e445U, 0xbda3b0dc3c136d1fU,
  0xbb1b785dbd27865fU, 0xbb30b8ad3d983b69U, 0x3e4b38a23debcd31U, 0xbc88031c3e205adbU,
  0x3d2205563cc04170U, 0x3d384256bd374109U, 0xbe3faf05bd957a73U, 0xbd5b1e13bddbf8ceU,
  0xbd8b1e1eb8ff4d3cU, 0xbd1083b03d8a0a8dU, 0x3d5a14933dd9c104U, 0xbcd01b5a3d5d41abU,
  0xbb8e38b83d5214fcU, 0xbd1740be3d17d75bU, 0x3d2273203d273af2U, 0x3dabcdfa3db10c4eU,
  0x3dd8bd023df7f04bU, 0x3d1a3cdc3e073412U, 0x3d11a43c3ccd2414U, 0x3c6e3f9f3cd495a5U,
  0xbdc974fabd844917U, 0xbd11f959bc5a43f2U, 0x3bc209c93d41a238U, 0x3db310393b84679dU,
  0xbcaeb3b43dd48d39U, 0x3d3780713cda3fb6U, 0x3daf44b3bd7f80ebU, 0x3d2e662f3d999346U,
  0x3dd29a7d3e087fbcU, 0x3da52bbbbca56e53U, 0x3d70e2133d3198d7U, 0x3ca5668a3e22905cU,
  0xbd85301dbd1599afU, 0xbd134ed53dcf468dU, 0xbe4ce334bd907d76U, 0xbc582ae63b9b9710U,
  0xbb5cb60e3dc2bdb4U, 0x3d46bb143d57101aU, 0x3d84ac4cbcaf0e74U, 0x3d366b443d28a32eU,
  0x3da8154a3df93b1dU, 0x3e48b7593dd83912U, 0x3e64deb93dce3053U, 0x3e1111ac3ddca295U,
  0x3e00cf9f3e2018a3U, 0x3d96f6ee3e2233b9U, 0x3bc1e809bcf5dbf6U, 0xbd9f56f13cea26ceU,
  0xbe075bb6bdad6f80U, 0x3db7bad03d40dbb7U, 0x3dfabee43d0157b8U, 0x3cd3a8c73d0a78c9U,
  0x3d0f82bdbd56bdb6U, 0x3d86e5093e06f3c6U, 0xbca95a33bcb1db7bU, 0x3e3161c13d8fc73fU,
  0x3e20f65b3e7d53e1U, 0x3e17373a3e22a9b3U, 0x3e618bcf3e35eaadU, 0xba26c1a23db702e2U,
  0xbd7181563d79252cU, 0x3c5aa0f2bc17d313U, 0x3cbefbe83d9c2b89U, 0x3e51fc38bd694f26U,
  0x3d345974bcca2d94U, 0xbd05d443bcb2d729U, 0x3da1ebbdbd97d709U, 0xbe1ce054bd14aaaeU,
  0xbdf5b7fbbde12e35U, 0x3c20afec3b465b14U, 0xbd316ed5bb672e97U, 0xbd687816bdf8aa95U,
  0x3e365091bb48d3d7U, 0xbc8087213de2c4e5U, 0x3b13434abc8a0d1cU, 0x3cb20c8e3d2ee383U,
  0x3dbb7861bc8c9452U, 0xbc010a493d496f8bU, 0xbcb8a5d2bd532cbbU, 0xbe3694fbbe137a8fU,
  0x3c3bd7cabd241691U, 0xbdcd0ae83b4b620dU, 0xbe513c6dbe4b2625U, 0xbec281dcbea2f29eU,
  0xbe5df831be5bd379U, 0xbd627283be95d7a7U, 0xbbcc3687bc00b81bU, 0xbd2ee3ad3db0e829U,
  0x3ce71e41bd86a959U, 0xbd4185c03d5aedd6U, 0xbbbe7b133d8da834U, 0xbe005deb3862162dU,
  0xbddbb734be497757U, 0xbd22b6d9bd83e0f3U, 0x3dd68ba83df3c4b1U, 0xbd6472ad3d13ca47U,
  0xbe7a9604be3eb6d6U, 0xbf0a8b1dbee7e0a7U, 0xbe4f721bbedb17f6U, 0xbe43b9f0be575d88U,
  0x3c7433eebd8be9ceU, 0xba8c64aa3de2d3e5U, 0x3d769c59bd19d983U, 0x3d51b9a3bd4798e3U,
  0x3da176f1bcb1132fU, 0xbe977104bccfb376U, 0xbe1801b0be5d2796U, 0x3d3ed9443cd535ccU,
  0xbd9943d33d5a3beeU, 0xbc92ce2e3cbcc9b2U, 0xbdbce92fbcfaff88U, 0xbe9df779be8c655aU,
  0xbe9eca17be4e0411U, 0xbe5cfbaabe233806U, 0xbc80e2b5be06ec0cU, 0x3d2b482a3d4edabaU,
  0x3c0cd04a3bb829ceU, 0x3daf58cfbd54ecb5U, 0xbe0271003d1bf918U, 0xbe765ddabe78a918U,
  0xbcc8b9e8be0f64c1U, 0xbd9c31e53ddd4c93U, 0xbd367e4abcbf89deU, 0x3b06f06b3c0e7f96U,
  0x3d9089703d9b0aa5U, 0xbe45a857be238fc9U, 0xbe6d2a9ebe78579dU, 0xbe45b55abe4f75dcU,
  0xbbc6fa38be06d660U, 0xbd0dd4ce3e035a67U, 0xbd73d5f43d0aa1eaU, 0xbdaaee403c90063bU,
  0xbe06c175bcd3f398U, 0xbe28da6bbe86c928U, 0x3dc14996be31ff27U, 0x3ce6e5a93d8ecd52U,
  0x3dc0cf4a3ab00c9eU, 0x3cf5077a3b972ba8U, 0x3e0625513e28ed58U, 0xbdf687e2bdcd5cf9U,
  0xbe63521abe519ed6U, 0xbbbfc7a2bc44d3b3U, 0x3d8d984cbce88402U, 0x3d964ddf3ba2fb1fU,
  0x3cca47d83d0e72d6U, 0xbd19179dbd3357caU, 0xbe4598ccbceb55fbU, 0xbdb80088be2eaa80U,
  0xbc2027f3bcf73b0dU, 0x3d93b8883a2369daU, 0xbda09dd3bcb26fecU, 0x3c95667bbd50d55cU,
  0x3dca1c113a115f45U, 0xbe1bc420bdfd9437U, 0xbe54147ebe196e31U, 0xbde94c99bdead5bfU,
  0x3dd83c16bd664b9cU, 0x3d9d5cbd3b402db2U, 0x3d6684eabc2fd500U, 0xbcf66735bd57bd85U,
  0xbdcb367dbcdeaa8eU, 0x3d285921bcf04eb5U, 0x3d00762c3d23d55dU, 0x3d128589bd5df590U,
  0xbd0ca131bdbb8edcU, 0xbd22a790bbb4c4d1U, 0x3da918163da91ac3U, 0xbc9f0052bbb02fb5U,
  0xbe243702bdd27e6bU, 0xbc3e2c92bcf746b4U, 0x3d1bd81fbc6dd6fdU, 0x3d5de6d23d1cf5c6U,
  0xbcdc1948bd8d1e9aU, 0xbc6b78703ce864c4U, 0x3d8844113d2fbe19U, 0xbd5cd2f13dad2d40U,
  0x3e1078f73e232813U, 0xbc3e7053bbf4053cU, 0x3cd864503d8c2274U, 0x3e09a2983d141e54U,
  0x3e229a1b3db0323bU, 0x3da3b34f3e20bb0dU, 0xbc33f8173d3750bcU, 0xbd770d8f3d5581b9U,
  0x3c5f231b3d53f586U, 0xbcf10f1c3d1d5748U, 0x3d5de6de3d783de2U, 0xbcf1f3723a17a400U,
  0x3e0642173d62fed2U, 0x3e530dd83d885f81U, 0x3e76b7813e461700U, 0x3e2ce54d3e2e1f2eU,
  0x3ea88c9d3e88e582U, 0x3e978ea03e1b51c7U, 0x3eb141f73ece6f6cU, 0x3deea6963e9800f0U,
  0xbd3a1fc8bd31989cU, 0xbcea19d6bbf52e40U, 0x3d425e7e3d79441aU, 0x3da86a37bd82768eU,
  0x3d647a823c3ba388U, 0x3d8a343dbd5bbef6U, 0xbd8d5be63d916ffbU, 0xbd1aa5bfbc077da8U,
  0xbd372cc43da02d17U, 0xbd202531bd0a03d8U, 0xbd471efd3d15976aU, 0x3c0058503d0305ccU,
  0xbd904a8dbd3fcf8aU, 0xbd781a0d3d236140U, 0xbd0732ee3d52d1aaU, 0x3ccd63003da5d499U,
  0x3caa209cbd0c5297U, 0x3c9ca12cbce5daeeU, 0xbd50ba133d81d813U, 0xbd307bda3d8f6e43U,
  0x3da65bd3bd5fab43U, 0xbd8cf04abd468c91U, 0x3d10b50bbd3be597U, 0x3db1b8a2bd068288U,
  0x3df004dcbc0bf561U, 0x3dcc29b93dc3b06fU, 0x3bb91560bc5b45deU, 0x3dbe91263d1621d4U,
  0xbcf0e7583bccde57U, 0x3d83624bbd202817U, 0x3d7ade5e3d32a75aU, 0xbce874ca3c001810U,
  0x3c988104bd1e7490U, 0xbcb5a68e3c85ce1cU, 0xbd4b6510bd34a7e4U, 0xbc9b59edbd81dd6bU,
  0x3c46f96ebcfe976cU, 0x3c8891373c9a70eaU, 0x3dcfb0aa3d2322ecU, 0x3e484c173de0a1b2U,
  0x3e37d1df3e6b23c1U, 0x3ebc5fa83e82fa6cU, 0x3e6d4fa23eb869a6U, 0xbc04f4333e531e9bU,
  0xbc24a88dba9d9bb1U, 0xbcf2612c3d212718U, 0xbdaa33afbc3d3af8U, 0x3d22806abc3caca2U,
  0xbd3c10d03dc0d1daU, 0xbd6ad9243c2141e7U, 0x3d5524b8bd595cbbU, 0xbda037e9bdb025c0U,
  0xbd9010a4bdd343e4U, 0xbe056c75bd9325c9U, 0xbdb04c393ca4ff07U, 0xbce954b93d660bbdU,
  0x3dbd1b9f3cd54300U, 0x3e08260e3e1d2f98U, 0xbc92cabdbd0baef5U, 0x3c3016c0bd30bd56U,
  0x3d387f51bda4ea93U, 0x3b8bd57fbd55b182U, 0x3c04210e3d725104U, 0x3d895e743d7e1608U,
  0xbdaa979a3c21ed44U, 0x3da6569ebd7587b2U, 0x3cbf4ba83bed13c1U, 0x3de95e40bd6e1fd9U,
  0x3d2a3c933d9b355dU, 0x3dcf24333e067263U, 0x3d90e7643d465fc7U, 0x3db30eb43d98038fU,
  0x3df1ac1c3e640fe4U, 0x3d17e6e53d808c08U, 0x3d7e411abd2f3627U, 0x3de857c73dcc3de7U,
  0x3d701c60bd13e125U, 0xbd4854113debfb83U, 0x3c553d7abdb8d129U, 0xbe1c596bbb950ef8U,
  0xbc1641a8bc9bcd88U, 0xbd62beb23bee11eeU, 0x3c281ebdbd46c5e6U, 0x3c76ccbf3d7679f7U,
  0x3d9eaf123e1263b4U, 0xbcefbcf9bd36b1c8U, 0x3e7c72663ca30d14U, 0x3ceedb423e854b89U,
  0x3cde03adbcadc128U, 0x3decb8a7bc344117U, 0xbd28b2d43e3945c2U, 0xbc48a18ebd90bdfbU,
  0xbd83777cbdb37c24U, 0x3ce73b2cbd876ef7U, 0xbd9043613d4f7d71U, 0xbcafd2373d68c371U,
  0x3dbdaf3bbdc5d2a9U, 0x3d718d063c5e1c13U, 0xbbbd45a63cb6aa6aU, 0x3d912528bd073342U,
  0x3e76e5803c37cc92U, 0x3e0a047d3e611376U, 0xbc8608be3d5757feU, 0xbce38eca3d491ae2U,
  0xbc4ce3743d8e72d8U, 0xbd9c282dbd24bf74U, 0xbdb388bbbe5e4a26U, 0x3d01951dbd89a163U,
  0xbd5fbbd7bd121c5eU, 0x3d7823cd3c2a9351U, 0xbc80d31eb6ef5980U, 0x3e1121e83ca38686U,
  0x3cafafb93e01db24U, 0x3e01e6043dda83a6U, 0x3d7576bc3cefd733U, 0x3d88dc193de3d446U,
  0xbd9287a03acfa5c0U, 0xbc50e2d9bd8f9811U, 0x3cb243d73ce14822U, 0xbe542f94bd967f5bU,
  0x3d45e238be3d77afU, 0x3d0659cebd3f0bd1U, 0xbc6a9a2ebca1f7a7U, 0x3c9fdba5bdc36058U,
  0xbd2cd79fbd869865U, 0x3da64289bd17e49bU, 0x3d35e09fbd574306U, 0xbd712e0a3c566d37U,
  0x3e30e80b3d612821U, 0x3e37cf6a3e6ef637U, 0x3d4e47adbbf5e170U, 0xbbd4cc013ccc0edbU,
  0xbd16b68bbbf54753U, 0xbe070699be647718U, 0xbd2bb47abdd50da4U, 0xbbbb548e3d5ae654U,
  0x3df528dfbd0123e3U, 0xbd689a02bd5fa7d0U, 0x3c803876bd4a3e2aU, 0xbd6469d1bd5a4f98U,
  0xbcf19c913d853d34U, 0x3dbc61ec3c4ff9e4U, 0x3e6dad303e32576fU, 0x3d7852223eb99b27U,
  0x3cacb919bca69521U, 0xbd230126bd3b1b1dU, 0xbcd57eed3c8a63e9U, 0xbe06cc21be61e79cU,
  0x3bdbfdf03cbffcebU, 0x3dcb77033dcf2293U, 0xbdb2e3983e19ac74U, 0xbda8c81dbdc3b27bU,
  0xbccaa76bbd859601U, 0xbd20a9a7bd2e5d1dU, 0x3c822e333cbffc11U, 0x3e89aa053e38361fU,
  0x3ec7af223e7b92b0U, 0x3da0e7c83e6685f1U, 0x3da6c31f3d0215cfU, 0xbd6d2a53bddbf805U,
  0xbd755f323d4266ccU, 0xbd9e806ebdd5951fU, 0xbddb7b6dbdf62a1dU, 0xbe2861f3bb82e172U,
  0x3d97e60dbdc91db6U, 0x3db3203b3de4b84eU, 0xbd6a5e6dbd5255c1U, 0xbcc61a7fbc825667U,
  0x3dd839073d05f6d7U, 0x3e8d11953e556556U, 0x3ec129103eb2c211U, 0x3d85b8d53e84c5d9U,
  0xbd0bccbdbd97fc72U, 0xbdedec10bded2304U, 0x3dc0a2b33d05ffecU, 0x3de3bbb9bd83a32aU,
  0xbe0592c03c692cdcU, 0x38b59640bd95f640U, 0x3d8ab56fbdab2d4dU, 0xbb1e81843e0fb133U,
  0x3d4e57a5bd3d1647U, 0xbd8783bc3cc833e4U, 0x3d8515fabd78088cU, 0x3d81635f3be91d4aU,
  0x3e2c38653e4eba03U, 0xb9b30bbd3e45188cU, 0xbb342a31bc5394f3U, 0xbe13e110bc9e412fU,
  0x3b2b988b3d191acaU, 0x3d85bb3e3d98b6c8U, 0x3d520939bb91c882U, 0xbd94d31ebe1545d2U,
  0x3e2b2c693d8efca0U, 0x3d6e67583e237b04U, 0xbc832854bd464fe6U, 0xbe50fa4cbc9a7d24U,
  0xbe9a2ad4be344d45U, 0x3b3af4a3bda34234U, 0x3dd1c979bd4afd2cU, 0x3d285d873dae2853U,
  0xbd43c8ad3d051768U, 0xbe16555b3da50bf1U, 0xbe09204ebdee0ef3U, 0xbd4a21f4bd3324c1U,
  0x3d7e7db23e1b0b40U, 0xbd8e258cbbe587f9U, 0x3de2ecad3d84a48aU, 0xbc8f630c3e375f52U,
  0xbd189c3e3c43608cU, 0xbe677320bdefdba3U, 0xbec9d8acbea339d5U, 0xbe7034bcbe8d43ceU,
  0xbd5a0daebe58117aU, 0xbd605c00bc832b76U, 0x3c62a6f3bd0f7252U, 0x3c41a5e7bc51ac38U,
  0xbdbf3cb7bdc93059U, 0xbb884682bc79d344U, 0x3c41e379bcad1a74U, 0xbd9d1c183ca9992bU,
  0x3deab3f03ca9cb94U, 0xbcefc7d63e1b632cU, 0xbd632172bd315e48U, 0xbe32708e3cf13dd2U,
  0xbee8a779be7f53deU, 0xbea7af03be874b9eU, 0xbc233b8dbe071dddU, 0xbbab46603c12dba2U,
  0x3d958e2dbc217defU, 0xbca52e603d520745U, 0x3d941e4bbd658c73U, 0xbd3b475fbddac86aU,
  0x3dc0d6a0bd0303eaU, 0x3d9ab0b73d8a7489U, 0x3bd99a1a3d6b8d74U, 0x3dd70b8f3de88542U,
  0xbe23b268bc884f21U, 0x3d120f4dbd47e825U, 0xbec69d59be68a929U, 0xbe5bb77ebec0df62U,
  0xbd3fa14dbd2a437dU, 0xbd8f5cfebd385002U, 0x3d947029bd4855c7U, 0x3d8f233f3de66033U,
  0xbd036fd9bd4e0a9dU, 0xbe37d65bbdcec447U, 0xbe25c677be4cd853U, 0xbd21aa503cbedfe0U,
  0xbcd31b48bd80a1b0U, 0x3db6bb013d766253U, 0x3d1adc563d1108e2U, 0x3d5f03e33e03c7bdU,
  0xbed29eedbd69c282U, 0xbe01baa0beb5f773U, 0x3c83c368be108dc5U, 0x3da27dbb3daca785U,
  0x3d9a372bbd1d530dU, 0x3cce6e993db28fb6U, 0x3d0ee934bc47d65aU, 0xbcd792c4bcbedd28U,
  0xbe21489ebe34d43dU, 0xbc873107bdff9fa5U, 0xbd3b8679bd915253U, 0x3d185e833d3b2380U,
  0x3e0ee6673d710daeU, 0xbc5ccc0e3e1a36abU, 0xbe6772b5bd988873U, 0xbe64b0e5be99d473U,
  0xbdc2462e3d1f97e4U, 0xbc9b52eb3d745acaU, 0xbd9a30023c2a3053U, 0x3d257aac3e4a6645U,
  0x3ae054ab3d411040U, 0x3d6e729bbccab61eU, 0xbdd3ae28bddd7c58U, 0xbd1eb02abcadd128U,
  0xbde1b7cebe15f52bU, 0x3dc0c3bf3b3e5573U, 0x3d4df76c3dd9bc4fU, 0x3cedd01f3e40c43fU,
  0xbea83f0ebde583e4U, 0xbdc22dd2beb665a3U, 0x3d3ecf0bbdb0237bU, 0x3dc48c233c49252dU,
  0xbace9c2abd9e1782U, 0x3d9d61693e3dc34cU, 0xbbf5581d3a6a6e7aU, 0xbd338b103db1ca56U,
